. 16664555
the 14731837
, 12704508
of 7525116
to 6453421
' 6311885
and 5370018
in 4531146
a 4512441
you 4481432
i 4388946
? 3304815
that 2929269
it 2830822
s 2782867
for 2412220
is 2345793
on 1998925
) 1989168
be 1903730
( 1747232
this 1561526
with 1542462
t 1520540
" 1449805
... 1357415
not 1324762
! 1293277
or 1264290
was 1253113
he 1250868
as 1214122
are 1197431
by 1179104
what 1166326
we 1108899
no 1073465
me 1055858
have 1042874
at 915252
an 852721
from 840941
my 832799
all 825487
your 818768
but 790128
can 768430
m 765779
: 758402
if 742832
do 738952
they 731791
re 659423
there 650117
so 634925
which 634094
out 622666
know 602689
his 589342
article 580153
one 571247
she 566984
just 558257
shall 550754
’ 518434
don 516292
up 514544
will 501295
him 497878
her 495590
like 495451
had 478487
here 477366
about 472706
commission 468331
been 447976
has 447081
get 439268
other 436126
right 436068
were 424572
european 420827
should 416487
re@@ 411221
ll 406171
when 406016
its 404844
- 403487
d 400369
would 395250
where 389548
regulation 388312
now 385208
who 384873
how 383852
time 383762
go 383107
may 381967
member 378926
-@@ 376394
their 371553
well 367232
see 364356
ve 358090
any 356803
; 354160
more 343104
them 334304
into 332140
did 323121
come 319491
could 314745
got 308818
only 307563
think 307263
us 298214
said 295061
want 287138
c 287135
back 286189
down 285648
must 282348
good 282034
than 280268
then 279581
take 279210
yeah 278424
in@@ 275998
states 272531
under 267256
some 264957
such 260959
why 259733
man 257519
these 257329
those 253384
ing 249278
oh 248394
court 246588
let 244225
% 243667
way 243420
e@@ 239528
state 235672
first 235573
un@@ 235500
our 233017
information 228111
decision 227527
a@@ 226913
g@@ 224804
over 224432
two 223500
also 222116
es 219972
yes 217223
ted 217120
– 216829
need 215308
de@@ 214817
before 212882
case 212470
okay 211979
use 211774
union 211633
look 210148
going 209858
after 209700
make 207522
new 206098
s@@ 204985
e 203801
b 203235
council 199347
tell 199111
‘@@ 199045
i@@ 197061
ec 197001
made 195271
l 190418
something 189055
because 187306
eu 185965
say 184091
between 183465
d@@ 182073
people 180842
law 180613
directive 180473
too 180063
does 179655
very 179635
c@@ 179240
really 177358
even 176629
never 173966
community 173812
didn 172055
p 169589
ro@@ 169202
p@@ 168932
t@@ 168318
used 168289
measures 166757
ed 166612
di@@ 164367
day 163536
set 163210
order 163176
within 160620
— 160058
en@@ 159065
off 158950
la@@ 158804
o 157223
gonna 157037
national 156788
little 156416
legal 156193
b@@ 155364
hey 153341
al 152887
co@@ 152604
ca@@ 152254
years 152226
work 151583
f@@ 150844
aid 150597
through 150049
part 149537
o@@ 149067
am 148324
ts 147911
still 146994
con@@ 146206
ti@@ 146040
er 144831
market 144547
last 143701
ma@@ 143086
ting 142496
financial 142472
g 142391
give 141642
ds 141609
place 141476
n 141283
ra@@ 140137
al@@ 138856
se 138346
following 137964
l@@ 137536
same 137424
each 135926
mean 135836
much 134963
annex 133859
be@@ 133821
m@@ 133815
-- 132583
accordance 132367
ar@@ 131932
ers 131714
name 130656
le@@ 130566
without 130002
help 129842
sure 129829
please 129254
general 128736
products 128342
st 126826
ri@@ 126801
application 126704
being 126626
data 126173
thing 126078
y 125901
again 125406
k@@ 125388
system 125006
life 124166
se@@ 124048
find 122194
rules 122163
li@@ 122092
u@@ 121785
de 121784
ly 121227
thought 121099
” 120757
period 119424
[ 119399
] 119361
number 119284
three 118410
doing 118122
another 117842
th@@ 117719
public 117486
particular 117250
an@@ 117143
put 116824
po@@ 116542
long 116401
sorry 115774
point 115193
provided 115162
k 114595
love 114395
y@@ 114248
paragraph 114043
si@@ 113878
own 113678
n@@ 112369
year 112262
red 112104
ta@@ 111636
pa@@ 111379
tra@@ 110865
mi@@ 110746
agreement 110398
nothing 110068
w@@ 109504
necessary 109202
ded 108903
procedure 108719
r 108706
referred 108658
lo@@ 107423
thank 107334
im@@ 107119
better 106703
night 106623
maybe 105954
less 105867
sed 105757
/@@ 105558
around 105362
done 105178
pe@@ 104921
h@@ 104776
anything 104433
having 104127
date 104118
services 104103
conditions 104040
tion 103984
away 103852
en 103784
against 103404
me@@ 103302
authorities 103055
most 102877
means 102481
sh@@ 102470
told 101788
might 101689
sa@@ 101654
both 101617
call 101602
certain 101280
found 101107
“@@ 100699
ses 100657
including 100653
son 100239
mo@@ 99939
x 99687
ha@@ 99609
led 99517
able 98962
bu@@ 98331
since 98330
f 98267
to@@ 97171
ate 97147
level 96366
service 96325
product 96217
ter 95532
god 95423
home 95332
r@@ 95319
taken 95240
keep 95150
great 94998
always 94869
dis@@ 94715
com@@ 94306
su@@ 94217
while 94024
provisions 93976
therefore 93618
er@@ 93531
however 93508
economic 93489
concerned 93325
ever 93311
during 93002
old 92995
parties 92801
subject 92773
things 92448
sir 92409
talk 92276
il 92142
&#124; 91584
pi@@ 91439
le 91194
vi@@ 91096
every 91083
basis 90852
pro@@ 90237
action 89667
ne@@ 89637
ch 89339
stop 89305
end 88851
policy 88750
mr. 88347
ad@@ 87979
specific 87827
person 87817
second 87646
party 87438
official 86961
mar@@ 86958
non-@@ 86953
na@@ 86924
car@@ 86891
ding 86868
it@@ 86677
costs 86661
world 86455
line 86406
committee 86372
whether 86234
development 86219
authority 86183
regard 86034
already 85971
te@@ 85968
gra@@ 85912
ni@@ 85603
days 85435
everything 85405
account 85356
as@@ 85165
question 84832
les 84661
no@@ 84443
left 84166
force 84063
men 84034
head 83951
or@@ 83697
bo@@ 83552
possible 83466
available 83311
do@@ 83048
until 82994
third 82971
control 82928
cu@@ 82847
ge 82793
requirements 82696
given 82223
ru@@ 82113
ensure 82014
came 81935
appropriate 81843
st@@ 81704
support 81687
um 81612
apply 81139
applicable 80679
relevant 80644
ch@@ 80531
proceedings 80504
course 80475
report 80455
ine 80415
te 80198
.@@ 80083
ge@@ 80064
v 80024
ac@@ 79907
wait 79528
based 79035
parliament 78801
taking 78576
least 78279
pre@@ 78209
bi@@ 78094
per 77846
once 77812
ation 77637
management 77469
different 77193
amount 76989
protection 76928
cases 76862
enough 76788
countries 76433
many 76348
ce@@ 76342
cannot 76303
house 76257
light 76182
common 75955
guy 75815
leave 75500
section 75281
tes 75150
kind 74932
believe 74482
at@@ 74228
value 74067
together 73859
side 73382
patients 73223
ba@@ 73118
inter@@ 73078
king 73060
ce 72964
risk 72911
fi@@ 72827
business 72612
hand 72586
someone 72543
uh 72488
fine 72434
won 72320
x@@ 72085
body 72039
wanted 71973
respect 71939
rights 71830
feel 71806
res 71712
ous 71605
father 71509
next 71490
area 71475
took 71260
form 71187
security 71003
country 70955
provide 70820
coming 70753
social 70723
du@@ 70493
doesn 70238
ga@@ 70128
den@@ 69846
saw 69815
above 69624
activities 69560
show 69518
ment 69430
evidence 69334
view 69269
company 69233
money 69204
per@@ 69153
big 69060
open 68904
went 68515
type 68442
programme 68402
der 68382
adopted 68259
table 68167
ms 67940
age 67927
knew 67819
th 67794
best 67771
change 67764
far 67640
ling 67242
ci@@ 67226
mu@@ 67205
group 67114
room 67095
da@@ 66805
over@@ 66631
v@@ 66509
trade 66493
act 66452
dead 66353
working 66317
fact 66294
lot 66213
w 66203
high 65896
treatment 65888
che@@ 65852
tions 65835
face 65819
international 65728
further 65728
water 65687
he@@ 65604
ated 65557
sh 65541
called 65401
total 65368
happened 65243
ste@@ 65107
guys 65107
care 65076
h 65039
stay 64838
lu@@ 64534
ship 64449
human 64228
free 64202
so@@ 63991
t-@@ 63990
applicant 63976
wi@@ 63955
whole 63945
ally 63919
access 63856
list 63750
sing 63724
ten@@ 63636
bad 63610
fe@@ 63498
ask 63359
try 63354
ct 63211
concerning 63145
family 63143
mother 63130
matter 63046
real 62966
the@@ 62705
heard 62697
according 62608
implementation 62515
kill 62463
production 62433
tri@@ 62406
seen 62263
oj 62240
remember 62230
required 62104
wrong 62048
reference 61809
yet 61701
fa@@ 61611
nice 61499
car 61495
else 61487
girl 61445
ity 61362
looking 61094
gu@@ 60801
s. 60787
ating 60725
on@@ 60684
ls 60679
el@@ 60667
gi@@ 60591
power 60387
mind 60314
months 60299
ii 60190
established 60189
office 60083
documents 60010
special 59939
considered 59881
cor@@ 59775
eyes 59606
for@@ 59521
pu@@ 59519
ex@@ 59439
important 59310
journal 59274
isn 59256
ck 59079
ter@@ 59065
hear 58992
ary 58834
hu@@ 58722
treaty 58713
tu@@ 58633
wasn 58587
ver@@ 58577
man@@ 58510
assessment 58419
ab@@ 58410
min@@ 58402
par@@ 58290
few 58254
competent 58204
either 58202
cted 58166
sts 58036
ma 57762
asked 57592
test 57560
effect 57549
trying 57533
thanks 57506
request 57363
board 57253
december 56956
pay 56879
five 56860
ap@@ 56736
dad 56734
hell 56661
start 56579
regional 56554
understand 56431
wa@@ 56377
actually 56359
full 56346
republic 56292
meet 56289
laid 56269
ves 56045
cooperation 56021
procedures 55912
present 55857
framework 55816
safety 55786
getting 55677
ss 55670
land 55479
articles 55313
go@@ 55274
des 55261
air 55232
tive 55222
ck@@ 55096
related 55093
eur 55082
talking 55011
late 54925
ments 54850
move 54468
ces 54461
interest 54451
mon@@ 54414
price 54384
job 54284
boy 54209
today 54156
plan 54146
ho@@ 54141
code 54094
ps 54038
ent 54034
relating 53947
woman 53864
food 53657
sta@@ 53622
due 53589
children 53318
ok 53287
op@@ 53227
ve@@ 53221
sub@@ 52964
under@@ 52951
ble 52856
four 52635
energy 52616
sp@@ 52502
technical 52484
later 52474
main 52267
making 51894
health 51874
answer 51849
mor@@ 51697
ged 51555
hold 51548
col@@ 51541
sti@@ 51496
small 51448
friend 51402
bring 51392
blood 51364
run 51346
ant 51259
child 51192
cover 51127
position 50966
ke 50824
shit 50773
bit 50736
ur@@ 50686
persons 50671
sen@@ 50656
looked 50606
clear 50605
il@@ 50578
government 50565
ks 50451
z 50071
situation 50062
hi@@ 50059
live 50053
door 49994
ler 49876
ings 49757
ag@@ 49710
out@@ 49493
rate 49478
listen 49418
million 49065
systems 48997
ali@@ 48956
tly 48819
opinion 48783
tax 48760
hello 48750
using 48688
cause 48552
goods 48528
legislation 48466
d-@@ 48422
single 48417
brought 48404
hard 48393
wouldn 48354
als 48297
ches 48173
close 48049
mark 48040
payment 48028
pursuant 47981
ten 47950
effects 47939
hours 47912
shed 47899
ction 47864
civil 47828
yourself 47818
proposal 47813
ss@@ 47547
field 47495
p. 47486
local 47470
bra@@ 47459
read 47425
mer@@ 47382
morning 47359
fucking 47354
ins 47331
bar@@ 47289
measure 47089
z@@ 47063
key 46965
ol@@ 46955
soon 46892
we@@ 46860
cks 46848
ago 46816
ked 46804
fuck 46778
gone 46750
carried 46704
minutes 46551
j@@ 46541
problem 46483
tic 46431
additional 46265
om@@ 46070
el 46054
city 45884
purpose 45867
doctor 45856
final 45848
granted 45843
members 45838
chapter 45780
needs 45765
mom 45758
alone 45748
maintenance 45624
idea 45543
judgment 45454
transport 45332
sc@@ 45325
ons 45218
ke@@ 45066
though 45058
principle 45016
har@@ 45005
killed 44996
staff 44928
fund 44785
fla@@ 44772
directly 44730
dose 44656
june 44655
eec 44643
ty 44495
met 44455
turn 44387
sk@@ 44372
administrative 44272
ready 44118
covered 44110
hi 44101
appeal 44073
research 44048
budget 44006
times 43977
men@@ 43969
areas 43924
war@@ 43903
pretty 43870
gen@@ 43849
e-@@ 43839
known 43815
baby 43782
document 43758
process 43662
upon 43600
young 43571
true 43539
play 43475
ja@@ 43442
probably 43365
held 43296
almost 43269
himself 43202
ka@@ 42982
include 42964
quality 42904
… 42888
lost 42835
ju@@ 42825
paid 42781
file 42754
intended 42660
sector 42659
competition 42634
guess 42591
wife 42579
issue 42499
result 42446
pen@@ 42432
submitted 42412
couldn 42395
ans 42386
current 42356
miss 42298
gh@@ 42179
check 42161
hands 42105
va@@ 42091
behind 41907
anyone 41838
outside 41797
school 41741
reason 41707
applied 41666
assistance 41644
funds 41559
joint 41543
dy 41523
bank 41517
sent 41509
active 41494
gave 41493
cal 41480
maximum 41362
moment 41358
friends 41357
je@@ 41284
justice 41227
expenditure 41142
says 41002
enter 40958
death 40946
ful 40926
ors 40879
provision 40856
vo@@ 40850
qu@@ 40770
everyone 40753
address 40698
ban@@ 40660
europe 40654
lin@@ 40606
low 40546
myself 40516
terms 40473
future 40453
ties 40422
can@@ 40420
cally 40401
cy 40391
la 40385
ance 40307
die 40273
am@@ 40221
individual 40182
implementing 40180
investment 40123
internal 40106
makes 39983
sting 39944
hope 39931
fully 39907
purposes 39889
da 39883
up@@ 39873
annual 39800
private 39643
sted 39622
cing 39585
dra@@ 39462
enforcement 39454
ging 39401
results 39304
stra@@ 39273
programmes 39235
happy 39211
increase 39202
word 39191
july 39165
six 39139
regards 39122
len@@ 39103
specified 39102
looks 39102
women 39071
heart 39020
bodies 38990
ters 38951
objectives 38888
mine 38853
jurisdiction 38837
au@@ 38829
pri@@ 38806
organisation 38769
network 38752
mat@@ 38731
ned 38656
jo@@ 38495
text 38462
lan@@ 38447
resources 38408
longer 38403
nature 38391
fire 38372
ber@@ 38316
january 38205
ster 38201
responsible 38198
impact 38150
basic 38149
watch 38040
ing@@ 37997
ness 37989
united 37953
training 37938
ze 37936
criteria 37909
equipment 37829
ations 37827
appropriations 37814
white 37789
ren@@ 37786
bur@@ 37771
cur@@ 37763
bed 37738
whatever 37723
tonight 37658
actions 37651
except 37641
id 37603
inside 37600
claims 37594
tan@@ 37512
companies 37444
entry 37381
industry 37275
effective 37248
march 37234
haven 37223
fo@@ 37208
limited 37141
provides 37125
wanna 37123
meeting 37091
ton 37087
lation 37001
employment 36997
wants 36982
investigation 36971
points 36954
turned 36895
ir@@ 36877
unless 36846
objective 36809
decisions 36758
scheme 36729
institutions 36726
mg 36694
saying 36668
standard 36656
ground 36641
exactly 36638
cs 36622
agency 36620
started 36547
personal 36546
below 36460
thinking 36454
operation 36449
half 36422
mb@@ 36411
brother 36400
courts 36359
review 36352
week 36229
scope 36228
payments 36177
president 36123
example 36094
♪ 36090
circumstances 35988
contract 35939
received 35920
mis@@ 35904
others 35833
cut 35810
publication 35741
sla@@ 35738
cts 35728
prices 35713
thus 35713
ser@@ 35708
ta 35707
et 35705
october 35664
amended 35651
es@@ 35586
rule 35578
ns 35515
rest 35359
der@@ 35356
fore@@ 35344
ele@@ 35303
cla@@ 35293
ou@@ 35288
become 35282
d. 35274
serious 35253
across 35249
.. 35169
af@@ 35138
thereof 35134
huh 35064
pe 35035
her@@ 35029
term 35029
note 35001
obligations 34989
sur@@ 34957
notice 34940
claim 34935
questions 34892
defined 34886
addition 34823
ched 34753
wish 34734
ne 34693
assets 34598
event 34590
regions 34557
police 34548
ki@@ 34537
responsibility 34523
shi@@ 34517
words 34467
deal 34435
ry 34421
property 34406
cro@@ 34322
project 34270
sion 34270
reasons 34246
capital 34217
nu@@ 34195
black 34189
ran@@ 34169
regulations 34152
ced 34065
meaning 34060
natural 34029
gar@@ 34014
tomorrow 33936
sis 33924
tional 33901
normal 33858
fin@@ 33824
needed 33756
ah 33743
ed@@ 33686
tation 33638
knows 33637
existing 33622
compensation 33613
comes 33609
ven@@ 33538
phone 33520
gotta 33492
ges 33477
captain 33475
capacity 33469
forward 33462
fu@@ 33435
cking 33425
ssing 33351
duty 33327
communication 33302
monitoring 33297
ob@@ 33257
undertaking 33255
acts 33234
along 33227
quite 33162
sound 33085
cost 33069
authorisation 33063
ph@@ 33063
tal 33027
tried 33021
whose 32966
establishing 32937
sal@@ 32923
several 32910
felt 32891
voice 32874
pped 32865
san@@ 32840
allow 32754
wor@@ 32754
credit 32734
town 32716
april 32707
share 32697
animal 32687
ning 32678
significant 32676
ence 32633
administration 32627
direct 32608
activity 32593
cting 32543
ring 32439
ching 32372
gs 32328
front 32288
export 32288
fight 32277
clo@@ 32262
mr 32217
ability 32198
cy@@ 32128
materials 32084
bro@@ 32045
limit 32041
customs 32024
similar 31978
and/or 31961
somebody 31928
cal@@ 31903
ys 31899
changes 31886
stuff 31869
minimum 31858
win@@ 31857
t. 31823
trust 31812
is@@ 31794
excuse 31783
november 31740
tor@@ 31740
_@@ 31697
trans@@ 31695
projects 31675
processing 31671
cru@@ 31651
send 31644
brussels 31619
decided 31591
ved 31555
ley 31555
book 31521
chance 31435
context 31434
happen 31433
u 31411
fishing 31399
contact 31372
heading 31366
shing 31357
ev@@ 31356
judicial 31341
finally 31332
ia 31326
med 31323
return 31304
ars 31298
ar 31260
war 31237
limits 31220
central 31192
levels 31169
bri@@ 31149
involved 31147
kingdom 31075
hit 31036
weeks 31019
kid 30974
imports 30920
parents 30906
standards 30892
ders 30846
chi@@ 30840
lower 30837
cra@@ 30798
issued 30769
ws 30728
ner 30723
ming 30714
past 30709
star@@ 30704
weight 30678
september 30672
damn 30657
easy 30644
gre@@ 30613
listed 30607
large 30564
environment 30542
save 30539
sit 30479
everybody 30466
/ 30393
proposed 30381
content 30301
ain 30269
bal@@ 30255
itself 30237
letter 30211
added 30211
shot 30160
potential 30094
continue 30091
y-@@ 30075
gets 30075
obligation 30068
mal@@ 30032
dri@@ 30030
kids 30028
safe 29966
supply 29928
shut 29927
material 29926
top 29908
fixed 29896
ct@@ 29883
higher 29828
perhaps 29821
road 29816
rather 29771
ard 29750
agricultural 29734
por@@ 29732
ker 29716
interested 29664
wal@@ 29642
han@@ 29612
matters 29595
increased 29587
story 29569
fer@@ 29566
gun 29523
included 29518
cked 29513
lead 29508
ssi@@ 29481
space 29458
nor 29277
iii 29262
wh@@ 29219
insurance 29210
sin@@ 29128
wing 29125
import 29121
agreements 29116
na 29090
fall 29078
statement 29065
producers 29042
compliance 29021
instruments 29018
convention 28994
gas 28976
dr. 28951
building 28926
stand 28905
undertakings 28820
figure 28818
beautiful 28771
studies 28762
major 28716
waiting 28694
regarding 28693
char@@ 28657
sch@@ 28623
et@@ 28623
mp@@ 28622
sense 28612
origin 28612
sation 28579
study 28568
operations 28550
growth 28517
eu@@ 28487
$ 28487
sli@@ 28478
exchange 28465
medicinal 28422
mp 28414
vehicle 28406
although 28404
crazy 28324
coun@@ 28297
follows 28261
ger 28235
ad 28234
ic 28229
pla@@ 28226
hal@@ 28214
ny 28166
sign 28155
running 28147
ari@@ 28108
analysis 28100
ving 28043
anyway 28023
supposed 28012
animals 28011
pan@@ 28000
em 27989
hurt 27952
holding 27952
goes 27934
sions 27872
far@@ 27821
sometimes 27771
lie 27763
works 27760
lord 27752
class 27726
waste 27709
lar 27688
financing 27623
died 27602
living 27582
sive 27578
environmental 27561
commercial 27556
game 27552
takes 27550
ty@@ 27510
changed 27509
month 27504
among 27473
ass 27455
seems 27445
principles 27423
ats 27415
tre@@ 27388
stu@@ 27382
sleep 27365
eat 27341
grant 27318
cha@@ 27274
evaluation 27230
nobody 27229
ori@@ 27209
resolution 27180
y. 27177
binding 27175
strategy 27174
site 27129
contested 27071
zed 27060
hour 27028
od@@ 27003
afraid 26999
determined 26989
applications 26956
bility 26955
ure 26936
notified 26932
territory 26878
benefit 26848
dan@@ 26834
sea 26832
jack 26820
performance 26815
break 26804
parts 26750
protocol 26676
speak 26645
instance 26607
transfer 26606
fra@@ 26598
ser 26583
ul@@ 26577
spe@@ 26575
box 26545
proof 26495
practice 26494
hor@@ 26405
forget 26395
drink 26384
connection 26381
worry 26374
carry 26374
ple@@ 26356
cou@@ 26352
germany 26312
co 26304
overall 26300
various 26300
don@@ 26278
fair 26276
approved 26273
no. 26231
method 26225
crime 26218
complete 26209
ly@@ 26202
experience 26180
nor@@ 26179
my@@ 26177
l-@@ 26146
down@@ 26045
role 26015
reports 26010
setting 25994
pra@@ 25990
authorised 25918
relation 25911
ther@@ 25859
fil@@ 25857
minute 25845
expected 25821
ery 25812
ator 25778
step 25766
february 25766
none 25744
otherwise 25735
truth 25697
language 25615
drive 25607
cat@@ 25572
markets 25538
paragraphs 25537
fish 25529
error 25510
tor 25499
guidelines 25489
sufficient 25485
size 25479
lives 25469
page 25457
seemed 25447
val@@ 25446
agreed 25445
approach 25406
types 25395
cre@@ 25309
team 25303
ze@@ 25289
containing 25277
marketing 25257
kes 25247
ered 25199
policies 25169
lady 25153
ering 25143
kept 25033
feet 25031
tal@@ 25026
daughter 25017
chan@@ 25003
flu@@ 24973
duties 24945
prior 24943
average 24889
tives 24875
towards 24867
fy 24860
dark 24850
hair 24798
range 24793
yed 24774
accounts 24769
couple 24725
thi@@ 24723
lose 24713
cen@@ 24687
cho@@ 24655
walk 24654
attention 24644
mentioned 24642
thro@@ 24629
reported 24611
submit 24600
sto@@ 24577
whereas 24574
require 24572
forms 24532
lated 24525
sort 24523
written 24512
contracts 24511
wil@@ 24509
computer 24466
tion@@ 24456
reach 24450
treated 24442
tru@@ 24409
eri@@ 24387
follow 24379
ca 24353
bs 24345
moving 24329
news 24317
essential 24298
sa 24293
husband 24279
contribution 24263
divorce 24216
bre@@ 24212
sales 24188
immediately 24182
resi@@ 24159
values 24142
ff@@ 24128
operating 24120
organisations 24098
ex 24089
approval 24072
ear@@ 24071
tur@@ 24061
problems 24038
beyond 24035
gri@@ 24031
paper 24009
status 23993
os 23982
giving 23972
entered 23965
whi@@ 23940
short 23906
hel@@ 23900
hot 23886
john 23883
requested 23879
sel@@ 23870
education 23868
feeling 23867
ben@@ 23853
bat@@ 23849
choice 23847
married 23841
stage 23838
alive 23835
welcome 23827
themselves 23824
early 23811
grounds 23807
mission 23798
protect 23786
especially 23770
foreign 23770
net 23767
earth 23761
tro@@ 23722
external 23699
hate 23696
* 23683
fun 23681
particularly 23674
title 23670
strong 23653
published 23652
pac@@ 23633
dispute 23624
wn 23615
pressure 23605
associated 23589
likely 23588
guarantee 23568
ak 23557
eea 23526
concluded 23523
equal 23514
amounts 23500
charge 23476
consider 23451
ye@@ 23441
commitments 23438
update 23428
telling 23421
infringement 23420
issues 23420
standing 23391
ways 23388
fac@@ 23332
previous 23298
ahead 23259
french 23242
communities 23230
master 23224
flo@@ 23210
adopt 23204
reduction 23193
knowledge 23182
political 23162
decide 23156
hearing 23145
instrument 23128
s-@@ 23117
ctions 23110
function 23102
girls 23085
groups 23059
ff 23050
medical 23040
oral 23038
anti@@ 23035
xi@@ 22995
establish 22959
aren 22947
revenue 22923
applies 22922
clearly 22907
institution 22897
create 22890
ped 22877
message 22876
detailed 22873
failure 22873
sha@@ 22835
boys 22803
officer 22803
france 22796
possibility 22786
obtained 22778
co-@@ 22767
criminal 22731
allowed 22728
unit 22724
agent 22715
yours 22705
replaced 22704
interests 22691
alternative 22654
reporting 22627
amendment 22590
c-@@ 22585
fying 22571
cool 22557
stri@@ 22508
stic 22502
sister 22488
trouble 22487
notification 22485
plant 22468
region 22447
promise 22444
comply 22439
exercise 22433
pain 22424
dly 22395
via 22311
ssed 22309
loss 22282
cohesion 22278
eligible 22219
ying 22216
operational 22181
produced 22165
adoption 22145
reached 22137
designed 22136
society 22086
bon@@ 22085
cation 22073
cold 22060
air@@ 22047
response 22028
ec@@ 21972
worked 21933
ver 21921
failed 21885
ron 21876
establishment 21865
followed 21834
ale 21820
representative 21806
sum@@ 21802
vehicles 21797
contains 21792
mm 21784
ens 21779
ward 21749
bel@@ 21728
often 21679
stupid 21673
sters 21648
zi@@ 21648
bor@@ 21648
pat@@ 21584
calls 21569
za@@ 21568
balance 21545
solution 21525
substance 21509
arrangements 21500
marriage 21492
condition 21487
bar 21446
sugar 21421
sun@@ 21421
indicated 21410
instead 21400
mil@@ 21386
street 21386
ping 21347
explo@@ 21340
ality 21307
consumer 21305
eye 21304
amending 21292
dog 21291
source 21280
professional 21276
clinical 21252
entire 21252
em@@ 21245
spi@@ 21245
green 21244
q@@ 21244
swe@@ 21211
judge 21206
determine 21170
mouth 21167
electronic 21159
examination 21146
workers 21141
closed 21123
progress 21113
cli@@ 21108
identified 21107
ctive 21106
seem 21102
registered 21088
e. 21077
wide 21042
certificate 21030
tis 21011
users 20998
brea@@ 20988
prevent 20987
acting 20981
ak@@ 20980
thy 20977
some@@ 20967
cer@@ 20935
anymore 20921
argument 20904
species 20903
facts 20903
it. 20897
substances 20889
tr@@ 20848
regulatory 20845
sor@@ 20813
moved 20805
ill 20800
arms 20789
exceed 20785
wed 20772
west 20744
mrs. 20724
gh 20716
original 20695
bla@@ 20690
floor 20677
laws 20666
technology 20657
mes 20637
elements 20626
ani@@ 20596
lin 20589
inten@@ 20588
ined 20584
wall 20577
pass 20559
funding 20543
card 20540
fast 20539
providing 20537
offer 20516
hol@@ 20510
volume 20503
greater 20501
sex 20497
yeah. 20451
sounds 20448
leaving 20428
tin@@ 20427
gate 20425
blo@@ 20416
stated 20413
honey 20401
milk 20393
powers 20374
target 20373
ships 20373
risks 20364
tors 20354
ite 20352
tin 20350
e.g. 20332
rates 20330
cri@@ 20306
declaration 20274
gg@@ 20270
methods 20217
disease 20142
observed 20139
buy 20133
eesc 20119
cel@@ 20112
euro 20099
fre@@ 20096
ran 20096
moreover 20090
relationship 20089
bru@@ 20089
alia 20088
extent 20082
ya 20076
behalf 20072
orders 20061
mer 20039
tics 20021
vis@@ 20019
fir@@ 20011
den 20009
miles 20004
head@@ 20002
rou@@ 19989
lea@@ 19988
lines 19979
starting 19974
perfect 19945
conclusion 19941
functioning 19935
dear 19934
skin 19925
seven 19909
vessels 19892
born 19877
of@@ 19868
re-@@ 19855
sho@@ 19853
# 19821
duration 19815
residence 19813
served 19810
base 19800
bringing 19786
sources 19777
a. 19763
notes 19717
began 19699
dar@@ 19698
analy@@ 19689
st-@@ 19685
considers 19674
lay 19669
ade 19664
record 19663
sale 19648
stopped 19643
anybody 19619
pick 19608
difference 19601
operators 19585
bul@@ 19584
remain 19574
benefits 19574
funny 19571
category 19557
tic@@ 19553
ha 19548
sy 19491
lo 19482
interim 19468
row 19442
playing 19438
/2006 19416
ina 19377
obser@@ 19370
super@@ 19354
spo@@ 19351
files 19350
sick 19344
contain 19340
ger@@ 19335
entity 19332
association 19314
damage 19307
sig@@ 19296
worth 19289
vari@@ 19277
global 19271
happens 19250
pre-@@ 19249
ture 19243
accordingly 19230
mur@@ 19221
sky 19215
usually 19206
opened 19205
item 19202
contra@@ 19198
mental 19193
ef@@ 19157
window 19143
plans 19136
scientific 19135
touch 19132
sses 19120
ies 19073
simple 19066
neither 19063
selected 19058
caught 19053
movement 19038
subparagraph 19037
secret 19037
history 19030
ko@@ 19023
compared 19008
hydro@@ 19004
tar@@ 18992
patient 18991
arm 18978
pho@@ 18977
dinner 18963
tw@@ 18946
boo@@ 18927
procedural 18927
poor 18911
improve 18901
stre@@ 18866
infrastructure 18854
equivalent 18831
described 18823
furthermore 18822
transactions 18810
indeed 18788
inform 18786
sustainable 18783
stock 18782
ball 18781
user 18775
low@@ 18772
cap@@ 18760
ory 18757
sw@@ 18731
parental 18725
cop@@ 18715
recovery 18696
requires 18696
recommended 18655
pping 18617
actual 18611
meat 18607
catch 18605
adverse 18598
press 18597
victims 18583
freedom 18580
bac@@ 18565
signed 18552
ra 18548
oil 18547
s/@@ 18533
consumption 18527
copy 18519
tests 18519
choose 18513
pr@@ 18507
description 18505
gue 18494
gen 18491
characteristics 18486
blue 18474
avoid 18455
debt 18453
bear 18446
legislative 18415
clean 18413
round 18404
di 18403
economy 18401
wel@@ 18401
recital 18385
hy@@ 18374
citizens 18362
time@@ 18354
load 18346
enable 18342
participation 18312
draft 18304
stood 18304
near 18270
german 18269
summary 18247
conduct 18221
continued 18198
reduced 18198
uni@@ 18166
deep 18153
regular 18134
debtor 18134
affected 18130
passed 18126
preliminary 18124
dro@@ 18107
cin@@ 18107
post 18096
iling 18094
eg@@ 18068
applicants 18061
rea@@ 18058
wine 18056
receive 18051
obtain 18049
manufacture 18043
iv 18042
plus 18042
entitled 18023
design 18020
poli@@ 18012
events 18010
income 18009
requirement 18005
object 17991
glad 17987
definition 17984
device 17977
version 17976
shown 17969
separate 17964
earlier 17948
a-@@ 17939
win 17934
difficult 17926
sm 17917
count 17890
population 17876
includes 17875
cash 17858
station 17850
ates 17840
loved 17838
details 17836
existence 17826
explain 17817
speed 17816
meant 17798
affect 17791
ig@@ 17791
medicine 17787
asking 17785
+ 17766
ones 17747
completely 17743
domestic 17743
fran@@ 17736
entities 17733
eight 17726
wood 17720
fell 17666
temporary 17665
drop 17654
jesus 17648
rise 17646
din@@ 17638
sna@@ 17634
straight 17631
sitting 17629
independent 17610
registration 17594
placed 17584
daily 17582
entirety 17582
click 17578
shouldn 17566
picture 17560
piece 17556
informed 17548
dy@@ 17529
les@@ 17528
ir 17525
therapy 17503
missing 17492
names 17489
ining 17474
lawyer 17474
holder 17443
model 17437
plan@@ 17433
innovation 17429
ster@@ 17427
calculated 17411
wan@@ 17410
somewhere 17401
write 17400
sy@@ 17397
work@@ 17394
fer 17392
marks 17376
quickly 17373
lar@@ 17368
initial 17368
reduce 17361
currently 17352
audit 17339
l. 17334
ries 17300
sectors 17297
south 17294
ka 17289
spain 17287
presented 17275
our@@ 17263
conformity 17262
raised 17259
ened 17250
by@@ 17232
opening 17224
uses 17222
bb@@ 17220
concerns 17196
phi@@ 17193
sul@@ 17192
storage 17187
recognition 17184
cent 17184
amendments 17165
pt 17162
clu@@ 17160
ils 17153
sample 17142
que@@ 17135
steps 17131
noted 17130
ton@@ 17117
kg 17117
recognised 17112
pur@@ 17079
appear 17057
writing 17048
in-@@ 17035
distribution 17017
seeing 17007
hospital 16999
glass 16983
implemented 16981
learn 16956
defendant 16942
link 16939
combination 16936
bye 16918
package 16910
lou@@ 16909
hand@@ 16871
corresponding 16859
sight 16858
fear 16855
add 16843
cell 16842
units 16836
agree 16835
internet 16834
august 16828
vote 16825
son@@ 16821
mode 16810
stone 16804
grand@@ 16803
nes 16799
tary 16793
pin@@ 16787
ths 16771
mid@@ 16763
shoot 16753
inf@@ 16751
north 16743
exposure 16740
ctor 16736
cies 16726
imposed 16713
server 16713
tically 16713
gro@@ 16696
ere@@ 16683
p-@@ 16673
ov@@ 16662
° 16660
ligh@@ 16652
fundamental 16644
dangerous 16642
consumers 16631
military 16628
self-@@ 16624
accept 16612
murder 16606
consideration 16593
factors 16591
caused 16586
operator 16586
former 16573
you. 16569
czech 16558
advice 16556
back@@ 16555
i.e. 16546
department 16543
new@@ 16541
laying 16541
‘the 16524
que 16523
ssion 16509
euro@@ 16505
contracting 16504
cker 16496
protected 16490
adequate 16487
structural 16470
bet 16450
windows 16450
drawn 16443
wow 16440
sweet 16421
promote 16415
reactions 16397
zo@@ 16396
calling 16361
on-@@ 16359
valid 16353
worse 16345
aim 16339
feed 16281
centre 16267
hundred 16259
ents 16251
vin@@ 16250
vation 16249
sam 16248
english 16248
medi@@ 16246
resulting 16242
till 16242
pull 16233
comments 16227
aries 16212
sco@@ 16207
prepared 16203
hood 16202
bio@@ 16201
bit@@ 16198
hear@@ 16196
absence 16182
automatic 16181
comm@@ 16177
dance 16176
select 16146
whom 16146
life@@ 16139
attack 16136
finished 16125
structure 16123
addressed 16111
gal@@ 16105
manner 16064
developed 16062
watching 16055
chief 16053
dream 16043
hun@@ 16029
wear 16026
tical 16016
fresh 16015
release 16014
restructuring 15969
suddenly 15967
machine 15966
dee@@ 15964
interpretation 15963
cep@@ 15944
ously 15940
j 15929
sold 15928
free@@ 15922
ensuring 15908
mc@@ 15906
iting 15906
om 15902
budgetary 15889
micro@@ 15885
website 15877
me. 15864
labour 15857
= 15854
atta@@ 15853
seat 15851
manufacturer 15847
off@@ 15838
negative 15838
showed 15834
gives 15823
completed 15815
search 15813
bankruptcy 15810
prove 15808
arguments 15803
luck 15801
italy 15794
tasks 15792
beginning 15785
industrial 15784
ble@@ 15775
ral 15773
yer 15768
positive 15759
van 15753
music 15709
dry 15695
daddy 15682
practices 15673
sell 15667
efficient 15667
chamber 15667
location 15663
quick 15661
items 15660
train 15652
serve 15649
accepted 15649
travel 15636
zone 15615
importance 15606
ess 15605
loo@@ 15603
reasonable 15597
bitch 15588
boss 15585
flight 15575
store 15564
whe@@ 15556
shel@@ 15544
sou@@ 15544
crisis 15543
addi@@ 15538
scared 15537
ine@@ 15534
american 15520
advantage 15516
proposals 15509
command 15506
certainly 15505
stan@@ 15492
concentration 15491
register 15464
see@@ 15453
prejudice 15442
int 15436
generally 15434
controlled 15433
a.@@ 15425
zing 15415
lucky 15405
pain@@ 15394
broken 15379
ruling 15378
to-@@ 15372
emergency 15365
checks 15362
fault 15362
netherlands 15342
became 15325
physical 15324
lack 15318
applying 15318
cations 15305
fisheries 15302
tered 15300
wind 15296
spend 15292
speci@@ 15278
concern 15274
ol 15258
hea@@ 15257
counter@@ 15256
port 15254
carrying 15249
pal@@ 15246
achieve 15239
latter 15226
contained 15220
finding 15215
sty 15211
art 15206
lying 15191
sat 15179
high@@ 15148
ai@@ 15138
toward 15126
charges 15122
organi@@ 15119
rob@@ 15116
weren 15113
fuel 15108
chair 15098
coffee 15086
correct 15084
tired 15079
capable 15078
constitute 15072
contributions 15056
tom@@ 15054
ants 15054
opportunity 15045
trial 15037
sun 15036
machines 15034
br@@ 15029
walked 15023
harry 15018
squ@@ 15002
ath 15000
america 14990
numbers 14986
peace 14984
ads 14979
matic 14970
gener@@ 14969
remarks 14962
regarded 14953
tfeu 14948
tender 14941
originating 14932
hang 14929
ml 14917
banks 14913
pa 14907
seconds 14899
option 14895
exceeding 14882
injury 14879
simply 14865
officials 14842
media 14830
committed 14827
initiative 14824
ron@@ 14823
ry@@ 14821
fat 14810
lov@@ 14808
bag 14791
happening 14776
efficiency 14775
coordination 14775
tle 14772
categories 14770
careful 14760
broke 14755
ip 14755
parent 14750
spent 14741
cast 14741
+@@ 14725
agents 14716
strange 14690
lling 14675
producer 14671
ecr 14670
qui@@ 14659
gentlemen 14653
m. 14649
geographical 14648
ther 14643
quiet 14641
partner 14635
periods 14633
shows 14625
consequently 14622
observations 14611
expect 14609
impossible 14602
ice 14599
fruit 14596
places 14593
develop 14588
testing 14580
form@@ 14571
ft 14568
priority 14564
throughout 14563
zz@@ 14552
ow@@ 14550
tt@@ 14549
maintain 14546
gged 14542
construction 14540
hurry 14534
tt 14526
controls 14507
transmission 14486
contribute 14485
fli@@ 14485
beat 14482
reli@@ 14482
fle@@ 14477
york 14471
plane 14466
bun@@ 14464
lock 14463
,@@ 14452
planned 14447
linked 14435
created 14434
achieved 14415
ro 14414
vessel 14410
fied 14398
injection 14395
mad 14391
selection 14391
provisional 14387
territorial 14374
throw 14371
/2008 14361
evening 14359
pul@@ 14354
fix 14349
brain 14348
ana 14338
recommendations 14316
/2004 14316
rap@@ 14313
extended 14302
,000 14299
china 14294
sen 14292
suppose 14292
herself 14290
rely 14283
driving 14253
radio 14253
conver@@ 14240
surveillance 14235
falling 14232
expressed 14232
dr@@ 14225
granting 14220
cour@@ 14218
reading 14214
collection 14210
doubt 14175
sets 14168
deli@@ 14166
adjustment 14166
twice 14164
absolutely 14153
sup@@ 14148
ride 14138
she@@ 14133
inspection 14114
governing 14112
cle@@ 14104
vat 14092
traffic 14070
identification 14069
seriously 14062
fri@@ 14047
primary 14041
sle@@ 14037
fication 14033
draw 14028
quantities 14010
coo@@ 14008
pointed 14008
ireland 14008
acid 14008
emissions 14000
wards 13999
italian 13996
tom 13993
demand 13991
star 13989
lled 13987
licence 13986
michael 13978
sol@@ 13976
track 13970
surface 13959
investi@@ 13955
annulment 13948
victim 13943
hotel 13943
dation 13940
lies 13927
unable 13918
ham@@ 13914
bran@@ 13911
dents 13909
contrary 13907
enjoy 13902
jobs 13900
fit 13899
handle 13894
exist 13886
medicines 13884
shes 13868
bound 13867
focus 13860
mit@@ 13859
ben 13856
accounting 13842
any@@ 13842
scre@@ 13833
ently 13831
spoke 13824
planning 13820
assigned 13814
ours 13798
thinks 13795
filled 13788
join 13788
records 13779
ssive 13778
liability 13769
imagine 13768
developing 13758
za 13735
multi@@ 13723
wonder 13718
boat 13713
you@@ 13710
iso@@ 13708
presence 13701
meetings 13696
ast@@ 13683
classified 13681
recent 13679
fro@@ 13671
long-term 13671
ordered 13668
ages 13660
less@@ 13656
rous 13655
confirmed 13644
fol@@ 13637
normally 13628
calculation 13621
consistent 13616
list@@ 13597
keeping 13596
ladies 13596
tou@@ 13585
partners 13572
memory 13568
cated 13566
justified 13565
bill 13560
-0@@ 13554
spot 13553
driver 13553
wo@@ 13552
estimated 13552
ore 13536
totally 13534
mass 13532
bly 13524
g-@@ 13516
electricity 13509
fourth 13508
shor@@ 13502
offen@@ 13496
played 13494
peter 13483
plu@@ 13480
components 13469
army 13468
path 13464
schemes 13462
smart 13460
weapons 13452
exporting 13430
calm 13419
who@@ 13414
vir@@ 13407
scale 13403
stran@@ 13401
dre@@ 13384
aware 13383
steel 13379
anti-@@ 13378
relations 13368
o-@@ 13352
honor 13346
plea 13343
supported 13339
kar@@ 13333
contents 13330
gli@@ 13323
stability 13321
va 13319
conclusions 13315
figures 13311
q 13301
incurred 13301
connected 13300
asi@@ 13288
cul@@ 13285
audi@@ 13284
receiving 13280
returned 13279
aspects 13272
rever@@ 13271
gla@@ 13265
ven 13249
findings 13239
lan 13239
partnership 13238
successful 13210
pers 13188
billion 13184
accident 13176
shares 13168
remains 13164
proper 13164
weird 13163
offered 13161
default 13159
investments 13151
east 13143
dude 13121
vers 13119
engine 13108
terrible 13098
i-@@ 13096
stop@@ 13095
py@@ 13089
sel 13086
tran@@ 13086
gold 13084
kno@@ 13073
experi@@ 13072
middle 13071
fighting 13065
talked 13061
director 13054
task 13049
efforts 13045
ky 13044
nar@@ 13042
radi@@ 13040
kin@@ 13029
requests 13028
consultation 13028
mo 13026
remove 13020
pack 13019
climate 13015
ken@@ 13010
pulled 12996
occu@@ 12992
charlie 12975
circu@@ 12967
indicate 12962
ends 12961
gene@@ 12960
shu@@ 12946
represented 12941
els 12938
shop 12930
approximately 12928
devices 12926
pl@@ 12924
web 12921
saved 12919
` 12916
/2005 12911
options 12911
colle@@ 12903
guard 12898
cry@@ 12897
strength 12892
disa@@ 12888
expenses 12887
dying 12880
airport 12879
distance 12875
interesting 12873
declared 12866
database 12864
majority 12863
extra@@ 12857
cate 12854
bil@@ 12850
foot 12842
indi@@ 12836
classification 12830
competitive 12821
stick 12815
inter 12811
una@@ 12810
ll@@ 12805
ini@@ 12802
length 12797
assess 12793
integrated 12789
character 12784
performed 12758
tte 12747
degree 12742
assessed 12729
logical 12703
soci@@ 12702
dor 12697
turning 12690
border 12686
sme@@ 12672
thousand 12663
cular 12649
mag@@ 12645
ray 12640
dent 12633
factor 12630
formal 12628
visit 12627
-up 12626
chemical 12626
ably 12614
implement 12610
uncle 12607
background 12603
consequences 12602
hadn 12596
rock 12592
exception 12588
program 12587
phase 12579
mal 12579
tations 12573
hom@@ 12571
kin 12568
s.@@ 12565
pes 12564
sia 12559
prote@@ 12558
affairs 12531
exemption 12531
/2009 12531
accession 12523
aircraft 12522
cross-border 12521
bli@@ 12518
ories 12509
transaction 12506
ing. 12506
worried 12505
located 12504
sm@@ 12503
sing@@ 12498
lays 12496
district 12494
rich 12493
direction 12493
david 12473
finance 12469
series 12460
introduced 12460
est 12456
joe 12453
arri@@ 12444
subsequent 12441
supporting 12440
witness 12439
experts 12432
ase 12430
finish 12421
ot 12418
eric 12415
empty 12413
/2003 12394
relevance 12385
killing 12380
renal 12373
accu@@ 12369
whoa 12363
river 12362
removed 12360
beneficiary 12359
rose 12357
stro@@ 12355
chinese 12350
vi 12345
nine 12343
delay 12330
wearing 12328
appears 12326
agencies 12321
tools 12313
tter 12301
sheet 12298
permanent 12295
mic 12289
high-@@ 12279
allocation 12271
wake 12270
heavy 12269
mistake 12263
alised 12257
purchase 12248
case-law 12244
signs 12224
slow 12217
recommendation 12213
managed 12206
strategic 12195
quantity 12191
lations 12186
hide 12185
respon@@ 12175
ty-@@ 12173
slowly 12169
identify 12167
rural 12162
delivered 12160
fur@@ 12158
law@@ 12152
tv 12151
sites 12146
determining 12142
fly 12135
severe 12133
nuclear 12126
gdp 12124
bin@@ 12123
clothes 12114
books 12107
cycle 12099
alisation 12095
extension 12095
wonderful 12094
exten@@ 12091
las 12091
corre@@ 12090
frank 12090
heads 12085
representatives 12082
occurred 12080
mechanism 12078
disputes 12078
george 12075
del@@ 12073
statements 12070
deemed 12070
smile 12066
crea@@ 12064
science 12058
dor@@ 12053
busy 12051
reali@@ 12048
emer@@ 12041
drug 12040
pun@@ 12038
precautionary 12028
appe@@ 12027
pil@@ 12025
attached 12025
horse 12019
band 12012
missed 12009
verification 12006
poland 12005
rejected 12004
minister 12003
grants 11990
produce 11989
ences 11988
designated 11982
integration 11982
bus 11982
planet 11972
sought 11965
ba 11960
ner@@ 11960
cit@@ 11958
pension 11952
cia 11950
commitment 11950
simplified 11947
crew 11946
uniform 11945
cti@@ 11934
increasing 11932
temperature 11930
facilities 11924
heat 11918
double 11917
dering 11915
surprise 11913
delivery 11910
sub-@@ 11909
modified 11909
named 11898
stly 11891
networks 11890
safe@@ 11884
examined 11882
tree 11879
ist@@ 11877
publi@@ 11875
lived 11869
thin 11868
percentage 11868
format 11860
facilitate 11857
settlement 11854
defence 11853
cher 11851
yesterday 11848
ti 11839
enterprises 11838
refu@@ 11836
opportunities 11835
race 11832
gation 11829
fees 11827
paul 11825
mutual 11818
introduction 11813
dle 11809
growing 11794
mel@@ 11794
referring 11789
spread 11786
pit@@ 11782
definitely 11778
god@@ 11773
az@@ 11772
compli@@ 11770
che 11763
plants 11760
termin@@ 11759
distor@@ 11757
tiny 11754
federal 11753
lodged 11752
claimed 11744
built 11736
flow 11735
gl@@ 11733
latest 11733
preparation 11731
si 11730
learned 11722
mean@@ 11720
nie 11719
raw 11716
rela@@ 11708
dedu@@ 11708
expert 11703
despite 11698
hole 11697
ners 11677
directives 11673
dal 11672
treat 11667
speaking 11666
cky 11662
ful@@ 11658
covers 11657
missions 11653
amazing 11649
logi@@ 11646
hon@@ 11641
max 11637
jun@@ 11636
tie 11631
waters 11621
ek 11617
ordinary 11615
compatible 11614
bought 11605
&amp; 11602
ingly 11600
grade 11587
huge 11582
ise 11574
island 11566
ung 11562
cer 11560
val 11559
mus@@ 11552
gui@@ 11547
currency 11546
image 11536
.... 11535
lod@@ 11530
intervention 11529
ce-@@ 11529
sar@@ 11525
logy 11499
views 11496
lets 11491
poly@@ 11490
os@@ 11490
block 11486
besides 11485
lights 11477
onto 11468
/2001 11467
dated 11466
belgium 11463
zation 11459
loans 11453
appropriation 11444
dress 11444
pressed 11443
impor@@ 11441
impli@@ 11432
gers 11426
validity 11421
build 11419
award 11416
supervisory 11412
advance 11407
fields 11405
grand 11396
permit 11396
video 11394
apart 11391
mike 11385
sity 11379
allo@@ 11376
prison 11372
burden 11372
specifically 11371
vis 11370
vol@@ 11366
previously 11365
checked 11363
van@@ 11363
birth 11353
ices 11352
leading 11349
let@@ 11346
individuals 11343
arising 11343
ki 11339
situations 11338
gradu@@ 11337
instructions 11337
ky@@ 11329
forever 11328
greece 11324
raise 11316
significantly 11313
effectiveness 11312
bridge 11297
sum 11295
ie 11293
picked 11289
kiss 11288
advi@@ 11288
hyper@@ 11285
org@@ 11285
clari@@ 11281
but@@ 11280
post@@ 11269
kers 11263
club 11259
interpreted 11259
combined 11258
allocated 11257
tel@@ 11250
frequency 11249
hur@@ 11248
smell 11244
obviously 11240
correspon@@ 11230
practical 11229
customers 11226
metal 11225
client 11223
itu@@ 11217
mon 11215
quota 11206
pression 11205
creation 11204
com( 11204
invited 11201
jac@@ 11201
suit 11200
c‑@@ 11200
reform 11198
administered 11195
vac@@ 11195
arti@@ 11194
promised 11192
statistics 11171
legs 11163
oni@@ 11154
appointed 11148
kidding 11145
division 11143
specify 11143
wedding 11141
pregnant 11134
cells 11132
ances 11121
mainly 11120
symptoms 11116
park 11116
av@@ 11113
omi@@ 11106
mary 11105
tele@@ 11105
swi@@ 11102
figured 11099
execu@@ 11097
contribu@@ 11084
jer@@ 11075
dig@@ 11074
ga 11069
ku@@ 11059
moun@@ 11058
/2007 11057
older 11055
weak@@ 11051
mari@@ 11050
secure 11049
putting 11049
tch 11033
alo@@ 11031
lor@@ 11031
commander 11028
manager 11026
al-@@ 11024
chain 11021
restrictions 11017
realize 11016
danger 11012
é@@ 11009
begin 11003
magic 11000
flying 11000
ecb 10998
anywhere 10998
walking 10994
attribu@@ 10990
competitiveness 10988
okay. 10984
glo@@ 10978
queen 10974
wri@@ 10969
negotiations 10961
buddy 10958
understood 10957
seek 10955
nan@@ 10954
summer 10953
iled 10950
annu@@ 10948
sugge@@ 10945
losses 10943
syn@@ 10942
ast 10935
involving 10927
nearly 10923
blow 10917
diver@@ 10911
tho@@ 10899
movie 10896
tariff 10895
oli@@ 10893
ess@@ 10892
closer 10891
luxembourg 10889
on. 10883
c. 10882
land@@ 10875
complaint 10871
ssions 10866
respectively 10862
possibly 10860
employees 10858
cross 10857
ken 10845
covering 10842
ish 10842
nat@@ 10835
loves 10831
hap@@ 10827
un 10820
examine 10820
refer 10818
wit@@ 10815
firm 10803
recorded 10803
gging 10798
approa@@ 10787
thir@@ 10757
distin@@ 10756
conducted 10747
nodded 10745
guarantees 10740
negoti@@ 10734
concept 10731
yl 10731
refle@@ 10731
ef 10730
links 10725
neck 10725
ph 10723
fire@@ 10718
drugs 10710
effort 10707
map 10698
blan@@ 10698
adap@@ 10686
right. 10683
fulfil 10681
asset 10681
anti-dumping 10680
resident 10676
transpor@@ 10674
color 10674
expression 10670
monitor 10667
mini@@ 10662
submission 10651
column 10644
appro@@ 10641
&@@ 10638
comple@@ 10632
us@@ 10631
ght@@ 10628
smo@@ 10627
financed 10627
route 10620
physi@@ 10613
functions 10610
watched 10609
li 10606
bud@@ 10604
half-@@ 10604
loan 10603
licences 10587
dates 10575
dropped 10571
breath 10570
wild 10569
screen 10568
sections 10564
liked 10563
eli@@ 10556
trip 10555
differences 10541
liber@@ 10541
stories 10538
keys 10529
richard 10527
college 10524
wer 10523
properly 10521
merely 10520
afternoon 10517
evil 10516
mate 10510
i-i 10508
ep 10505
irs 10502
recei@@ 10502
nationals 10500
christmas 10499
guar@@ 10498
sl@@ 10495
conce@@ 10495
profit 10495
locked 10484
namely 10478
hereby 10472
ace@@ 10469
succe@@ 10466
tage 10461
letters 10460
dge 10460
online 10457
notify 10437
und 10425
shar@@ 10421
proud 10419
flag 10403
easily 10394
birthday 10389
guards 10385
carefully 10383
suitable 10378
supplied 10377
travel@@ 10374
operative 10373
hen@@ 10372
tain 10372
host 10372
influence 10363
solutions 10360
buildings 10356
emo@@ 10354
forgive 10349
breach 10347
killer 10346
od 10346
properties 10345
discrimination 10340
oned 10340
song 10313
presen@@ 10312
technologies 10308
€ 10307
broad@@ 10306
useful 10303
authori@@ 10294
there@@ 10294
transparency 10289
skills 10287
spa@@ 10286
dun@@ 10285
competence 10283
ey 10278
ax@@ 10276
suspension 10275
pon@@ 10273
occur 10272
pha@@ 10270
vely 10266
center 10262
boun@@ 10253
twi@@ 10252
dal@@ 10245
gor@@ 10241
ctors 10241
explained 10228
realized 10221
non@@ 10220
dumping 10218
fish@@ 10217
one-@@ 10215
corner 10205
ctu@@ 10199
regi@@ 10196
allows 10195
“i 10190
edi@@ 10189
promotion 10187
run@@ 10187
compla@@ 10179
soul 10176
lieutenant 10169
mped 10166
deadline 10161
commen@@ 10161
cat 10160
rare 10157
spanish 10155
e-mail 10155
stable 10155
managing 10146
paying 10141
alter@@ 10139
tablets 10139
cultural 10139
mail 10138
dru@@ 10137
appendix 10132
fel@@ 10129
atten@@ 10129
reply 10127
weapon 10126
replied 10124
tari@@ 10119
gran@@ 10112
condi@@ 10109
shape 10107
pilot 10106
church 10105
vio@@ 10104
leaves 10103
rer 10102
battle 10100
drawing 10097
austria 10096
dec@@ 10096
modi@@ 10093
harm 10092
james 10089
accompanied 10088
nov@@ 10078
mg/@@ 10077
ko 10076
enemy 10073
nia 10070
ford 10063
custody 10063
display 10061
determination 10060
stages 10052
challenge 10051
derogation 10048
thin@@ 10042
disposal 10039
feels 10038
enterprise 10037
marry 10036
cop 10036
dou@@ 10032
element 10030
extra 10025
portugal 10025
g/@@ 10025
carbon 10019
priorities 10019
cial 10017
apartment 10007
conta@@ 10007
prepare 10005
selling 10002
detective 10002
transferred 10000
ren 10000
conflict 9994
component 9989
etc. 9987
understanding 9982
ang@@ 9981
film 9977
humans 9968
communications 9965
fill 9965
expiry 9964
highly 9963
ano 9959
fron@@ 9955
forgot 9951
escape 9943
exci@@ 9943
match 9933
emia 9931
bottom 9928
odi@@ 9926
facility 9922
alities 9922
yes. 9922
se. 9921
indication 9916
respective 9905
installation 9901
sad@@ 9900
swear 9897
tan 9896
ony 9895
encoura@@ 9895
cious 9892
dia@@ 9889
spirit 9881
learning 9878
ack 9875
scene 9875
prevention 9874
lunch 9873
warning 9873
perform 9867
holy 9866
statistical 9858
ply 9858
electro@@ 9858
structures 9855
spouses 9853
stress 9852
slo@@ 9850
cited 9849
remaining 9845
receipt 9843
forest 9843
resol@@ 9837
ban 9837
black@@ 9835
interven@@ 9835
defe@@ 9829
hall 9827
liable 9826
pleasure 9824
measured 9824
fen@@ 9822
tex@@ 9816
moon 9798
girlfriend 9794
creditors 9791
documentation 9791
angry 9790
willing 9788
mou@@ 9780
supervision 9780
‑@@ 9778
home@@ 9777
bes 9777
procurement 9774
impairment 9773
appreciate 9769
certainty 9763
sk 9758
profile 9757
chosen 9752
christ 9752
gement 9750
enjo@@ 9750
surprised 9743
apparently 9736
colonel 9733
print 9731
indu@@ 9725
participating 9718
lers 9714
metaboli@@ 9710
insi@@ 9708
jan@@ 9707
sword 9703
produ@@ 9700
doors 9693
sweden 9693
pay@@ 9693
roll 9688
=@@ 9685
nuts 9685
coordin@@ 9685
outturn 9681
refund 9676
ot@@ 9666
vali@@ 9661
sufficiently 9661
smoke 9661
expor@@ 9661
techni@@ 9659
ugh@@ 9659
ö@@ 9633
peri@@ 9631
goddamn 9626
wat@@ 9624
missi@@ 9624
compo@@ 9622
assi@@ 9619
recently 9619
constitutes 9617
romania 9611
gan 9611
culture 9607
ening 9606
ci 9606
cc@@ 9605
intermedi@@ 9604
sees 9602
sentence 9594
cars 9588
closely 9581
success 9567
marked 9558
bing 9548
well-@@ 9546
cov@@ 9543
weigh@@ 9539
grow 9537
partial 9535
aside 9534
trees 9534
alright 9526
henry 9522
defen@@ 9515
nit@@ 9510
settled 9506
fraud 9505
registry 9505
certificates 9505
label 9497
unknown 9497
ham 9496
avoi@@ 9496
nevertheless 9493
refers 9490
cancer 9484
vel@@ 9481
cap 9474
disorders 9471
minor 9469
beer 9465
mps 9463
noise 9463
iso 9461
sca@@ 9459
legally 9457
aims 9454
sad 9452
initiatives 9451
spar@@ 9449
placing 9441
improving 9440
regime 9440
iron 9437
rit@@ 9434
nose 9429
manage 9425
som@@ 9423
helping 9423
languages 9421
codes 9420
gun@@ 9407
quar@@ 9407
helped 9406
edge 9405
generation 9404
complex 9399
meter 9397
subjects 9392
fingers 9389
web@@ 9388
indicators 9388
lined 9375
smes 9374
dness 9371
tory 9366
lon@@ 9365
personnel 9362
russian 9361
trading 9356
hasn 9355
processes 9355
defin@@ 9341
frea@@ 9340
worst 9340
programming 9339
conference 9332
guidance 9322
ber 9315
tionally 9315
execution 9312
ji@@ 9305
gy@@ 9297
wise 9296
dered 9295
doses 9295
nate 9292
constru@@ 9284
london 9284
jud@@ 9282
civili@@ 9278
usual 9276
cops 9276
ops 9273
mention 9273
dogs 9269
le-@@ 9269
principal 9267
joined 9265
read@@ 9260
warm 9259
relax 9254
cen 9253
bo 9252
delegated 9248
conne@@ 9244
yers 9239
effectively 9236
depending 9234
reje@@ 9233
k. 9233
inclusion 9232
lovely 9224
zu@@ 9224
separation 9224
preven@@ 9221
drunk 9221
shared 9217
ing-@@ 9211
designation 9207
identity 9204
showing 9203
margin 9203
confidential 9202
bastard 9200
mi 9194
truck 9190
para@@ 9188
denmark 9184
proce@@ 9174
m-@@ 9174
leg 9168
dom@@ 9168
changing 9168
mation 9167
leader 9167
substantial 9166
moni@@ 9166
annexes 9160
min 9158
bone 9157
acqui@@ 9156
fax 9155
powder 9154
forced 9146
lips 9145
water@@ 9137
consul@@ 9135
positions 9133
con 9132
excluded 9132
tened 9131
n-@@ 9130
faces 9129
sole 9126
sele@@ 9125
expired 9114
executive 9112
chil@@ 9105
stakeholders 9105
blu@@ 9104
paris 9104
aw@@ 9097
distur@@ 9097
finds 9097
illu@@ 9095
passenger 9093
pou@@ 9093
deci@@ 9093
emb@@ 9092
operate 9086
destroy 9081
tail 9078
challenges 9075
fiscal 9072
insolvency 9072
advanced 9070
settings 9068
cn 9068
len 9061
indications 9051
wrote 9045
stuck 9044
ld 9043
fee 9042
gol@@ 9038
beneficiaries 9034
kitchen 9025
kil@@ 9020
ghts 9020
appeared 9019
comfortable 9018
processed 9016
session 9014
judges 9014
merger 9005
knowing 9000
fit@@ 8995
tures 8993
burn 8992
silence 8992
panel 8992
employed 8988
answered 8978
st. 8974
accelerated 8973
desk 8969
inven@@ 8968
terri@@ 8966
stocks 8962
promoting 8959
str@@ 8955
stairs 8954
tough 8949
dialogue 8948
contractual 8943
tively 8942
agriculture 8938
tine 8937
officers 8936
ministry 8936
aggre@@ 8934
signal 8931
equ@@ 8931
economi@@ 8927
um@@ 8922
é 8911
eve 8910
represent 8908
harmonisation 8908
invitation 8907
sil@@ 8904
leaflet 8904
hmm 8902
taxation 8893
ac 8893
aimed 8891
walls 8891
youth 8891
illegal 8890
bol@@ 8886
oun@@ 8886
tain@@ 8879
securities 8879
traditional 8879
goodbye 8875
exists 8874
arrived 8873
sleeping 8872
migration 8867
hereinafter 8861
pol@@ 8861
participants 8861
core 8859
stands 8859
arrest 8858
survi@@ 8857
ffs 8856
ators 8852
gue@@ 8849
compe@@ 8844
automatically 8844
updated 8842
teen 8838
shoulder 8838
style 8834
maintained 8832
camera 8826
noticed 8826
fool 8823
compatibility 8822
comparison 8821
veterinary 8819
reducing 8814
with@@ 8812
here. 8811
ston 8810
chest 8809
admit 8808
gift 8808
powerful 8801
passengers 8796
spring 8793
falls 8793
outcome 8792
insulin 8786
nau@@ 8784
imported 8783
destination 8778
clearance 8774
cta@@ 8774
likes 8774
smiled 8772
lun@@ 8772
favour 8771
exports 8770
considering 8769
honest 8768
/200@@ 8767
immediate 8766
brown 8765
obli@@ 8763
somehow 8763
faith 8761
developments 8761
prosecu@@ 8759
san 8755
ading 8755
forces 8753
turns 8753
slightly 8752
boyfriend 8751
marine 8751
instru@@ 8745
{ 8743
creating 8742
apparent 8738
origin@@ 8734
dating 8730
atory 8729
ring@@ 8725
owned 8722
ip@@ 8721
exceptional 8718
remuneration 8716
nervous 8715
fired 8713
drew 8713
taste 8707
stor@@ 8702
deman@@ 8701
opposition 8699
tight 8698
gain 8692
push 8690
teeth 8690
absor@@ 8690
vie@@ 8685
quit 8680
institutional 8678
hat@@ 8676
digital 8673
/2002 8667
bbed 8666
eating 8663
satisfied 8659
ately 8659
tial 8657
teach 8655
bulgaria 8654
darling 8649
repe@@ 8649
cles 8646
prof@@ 8646
detail 8645
ensu@@ 8644
pieces 8640
entirely 8634
professions 8632
motion 8628
button 8622
ath@@ 8620
maritime 8619
aring 8619
clock 8618
fon@@ 8614
farm 8613
net@@ 8611
owner 8610
conversation 8609
transitional 8608
gations 8601
pool 8601
dollars 8599
atic 8593
ado@@ 8588
feelings 8587
cards 8580
demonstra@@ 8579
cement 8577
tea 8577
ple 8576
gated 8574
tual 8574
bottle 8572
incen@@ 8567
sei@@ 8566
bloody 8564
} 8562
greek 8561
tablet 8560
multiple 8558
threat 8556
com 8552
mama 8552
wai@@ 8549
chu@@ 8549
ex-@@ 8549
rain 8548
flat 8548
gan@@ 8545
plasma 8544
grace 8541
depart@@ 8541
euratom 8538
aqu@@ 8538
software 8533
tery 8528
businesses 8526
collective 8525
arian 8525
improvement 8523
good@@ 8519
harmonised 8509
eds 8506
cross-@@ 8505
birds 8504
composition 8504
stal@@ 8502
features 8498
packaging 8493
post-@@ 8491
professor 8488
relative 8485
aled 8485
split 8481
ama@@ 8480
motor 8479
ash@@ 8476
psycho@@ 8474
easier 8473
dreams 8473
collected 8472
two-@@ 8467
mess 8465
shook 8464
tem@@ 8463
zy 8458
cus 8456
titude 8455
suggest 8455
schedule 8453
trea@@ 8452
ets 8449
finan@@ 8445
liter@@ 8440
nation@@ 8437
proje@@ 8432
allowances 8431
stion 8431
tonnes 8431
epi@@ 8428
threat@@ 8427
guns 8425
blind 8417
eu-@@ 8415
pregnancy 8410
remote 8407
boar@@ 8399
licen@@ 8395
ended 8395
gin 8392
targets 8385
dete@@ 8381
gic 8374
whenever 8373
preclu@@ 8371
permitted 8371
ought 8369
prince 8367
eag@@ 8367
sharing 8364
nic 8363
headed 8362
puni@@ 8362
ment@@ 8356
healthy 8355
taxes 8354
pati@@ 8354
de-@@ 8352
handling 8350
corri@@ 8344
equity 8344
references 8343
charged 8340
tel 8334
exclusive 8334
pled 8332
yellow 8331
russia 8331
sergeant 8328
juli@@ 8325
i.@@ 8324
liabilities 8322
ap 8316
enti@@ 8315
dr 8312
participate 8310
pli@@ 8306
reinfor@@ 8305
person@@ 8305
hungry 8303
xes 8297
mechanisms 8296
time-@@ 8296
aling 8295
tak@@ 8294
characteri@@ 8293
soft 8291
dispo@@ 8286
constitution 8280
cket 8280
ratio 8278
know. 8278
rid 8278
armed 8277
sampling 8274
bet@@ 8269
drea@@ 8269
excluding 8268
lls 8268
waited 8266
dele@@ 8265
leg@@ 8264
cable 8263
specifications 8259
sigh@@ 8256
valu@@ 8254
examin@@ 8250
dem@@ 8243
microsoft 8242
gin@@ 8240
agu@@ 8235
classi@@ 8231
electrical 8230
sin 8227
imagin@@ 8225
secondary 8224
hardly 8224
hit@@ 8222
thers 8221
quarters 8216
shoes 8212
munici@@ 8211
acti@@ 8209
pleas 8205
jim 8204
mbling 8204
difficulties 8204
everywhere 8201
listening 8196
idiot 8192
prospe@@ 8189
pictures 8189
qualified 8184
remin@@ 8180
rough 8178
consult 8177
proportion 8177
drinking 8173
ea@@ 8171
trials 8170
ü@@ 8170
papers 8169
proceeding 8167
itor 8163
transpo@@ 8163
reg@@ 8157
ports 8156
vit@@ 8156
reaction 8155
formed 8154
samples 8153
clean@@ 8152
introduce 8150
trusted 8149
ni 8149
night@@ 8148
holds 8147
restri@@ 8141
intensity 8140
supplies 8138
fleet 8136
suffered 8129
exhau@@ 8128
encourage 8122
knife 8120
insu@@ 8120
los 8110
underlying 8104
state@@ 8103
end@@ 8102
ative 8100
glob@@ 8098
swit@@ 8097
wondering 8095
camp 8094
output 8091
dealing 8087
sexual 8085
sam@@ 8081
grab 8079
expl@@ 8078
completion 8076
sake 8075
are@@ 8073
ear 8073
gross 8069
sible 8068
ide@@ 8068
tribunal 8067
dif@@ 8059
remained 8059
invalid 8056
lisbon 8055
phen@@ 8053
legitimate 8050
slu@@ 8049
agenda 8047
university 8046
tun@@ 8046
vision 8044
broad 8044
beside 8044
harve@@ 8043
strengthen 8040
log 8039
proportionality 8036
jump 8029
believes 8027
quali@@ 8026
communicate 8022
released 8018
regula@@ 8016
believed 8012
deliver 8009
debate 8008
solely 8007
ere 8005
ore@@ 8004
proportionate 8002
hoping 7999
depends 7999
machinery 7999
bearing 7998
career 7998
ourselves 7997
sely 7997
duly 7995
six@@ 7993
finland 7993
ski 7992
acci@@ 7991
fixing 7987
appointment 7985
rence 7982
comman@@ 7981
bas@@ 7978
farmers 7978
lists 7976
obliged 7976
ambi@@ 7976
manife@@ 7975
may@@ 7973
headings 7968
calendar 7967
nationality 7964
pose 7961
sides 7960
lawyers 7958
adjusted 7956
tha 7953
ols 7950
becomes 7950
aly@@ 7948
indirect 7945
ption 7944
assume 7941
bles 7935
deficit 7935
solid 7935
jimmy 7935
replace 7925
dan 7923
puts 7922
liver 7922
nations 7921
reven@@ 7919
starts 7919
bird 7916
stream 7915
comparable 7914
kie 7913
tape 7910
cheese 7910
ryan 7900
respe@@ 7896
hungary 7892
secre@@ 7891
eing 7891
shirt 7887
soldiers 7885
nick 7881
prescribed 7876
stron@@ 7875
cian 7874
upset 7874
mixed 7874
mobile 7866
uk 7865
rol@@ 7865
games 7862
bright 7859
mountain 7858
consu@@ 7855
fting 7854
lots 7852
presentation 7851
ological 7850
trou@@ 7848
owe 7848
subsequently 7847
recru@@ 7842
mandatory 7840
awarded 7840
scar@@ 7839
fun@@ 7838
comprehensive 7837
joke 7834
alleged 7832
borne 7831
ah@@ 7828
quo@@ 7825
bor 7823
ena 7823
cei@@ 7821
operated 7821
female 7821
square 7820
candidate 7820
gotten 7818
opinions 7817
archi@@ 7817
judgements 7815
thoughts 7815
after@@ 7814
cfsp 7808
throat 7807
sensitive 7804
staying 7804
art. 7804
technological 7804
stars 7802
assa@@ 7799
mul@@ 7798
television 7797
estate 7796
damages 7791
witnesses 7789
withdrawal 7785
stipu@@ 7780
ane 7780
spon@@ 7779
auth@@ 7778
sta 7776
arrangement 7776
themes 7776
drop@@ 7774
jane 7773
folder 7771
acknowled@@ 7769
mor 7763
k-@@ 7761
ohim 7760
improved 7757
sending 7754
nings 7750
nation 7748
desig@@ 7748
highest 7746
governance 7744
fts 7741
hill 7741
foot@@ 7737
loy@@ 7729
simpli@@ 7729
thu@@ 7728
norway 7727
tering 7726
obvious 7726
sc 7725
compar@@ 7724
blin@@ 7724
infe@@ 7723
bigger 7723
var@@ 7721
religi@@ 7719
refuse 7719
tains 7719
http://www.@@ 7718
accoun@@ 7713
messages 7706
acquired 7706
screa@@ 7704
faster 7703
allowing 7702
thre@@ 7697
ny@@ 7696
gover@@ 7694
oh. 7690
stored 7690
index 7687
ve-@@ 7686
suspect 7683
yu@@ 7681
attempt 7680
losing 7676
mobility 7676
tting 7674
consent 7672
eco@@ 7670
teri@@ 7667
predi@@ 7666
tent 7666
elimin@@ 7664
pending 7662
restrictive 7661
sixth 7660
deplo@@ 7659
mov@@ 7659
dence 7655
greatest 7652
*@@ 7649
laugh 7649
zero 7648
initi@@ 7643
electric 7642
pen 7638
met@@ 7635
tained 7634
cities 7628
allowance 7625
darkness 7625
sal 7624
the-@@ 7624
dirty 7621
th-@@ 7620
ei@@ 7619
righ@@ 7619
upper 7619
phic 7613
key@@ 7609
ling@@ 7606
certification 7604
thereby 7600
ome@@ 7599
verify 7598
restricted 7595
pursu@@ 7594
checking 7593
anna 7593
emission 7592
bob 7590
define 7590
castle 7589
governed 7589
´@@ 7588
suspected 7585
preparations 7584
expan@@ 7583
thetic 7581
scru@@ 7579
en.@@ 7577
thereto 7576
seeking 7573
organised 7573
stared 7572
claim@@ 7571
concentrations 7571
confe@@ 7567
village 7567
brothers 7565
weak 7565
passing 7564
twenty 7564
by-@@ 7561
entitle@@ 7560
ght 7558
favor 7553
efta 7547
limit@@ 7546
excellent 7546
ä@@ 7542
input 7539
fifth 7539
bow 7539
sudden 7537
hiding 7536
infring@@ 7533
ney 7532
favorite 7531
constitu@@ 7531
gy 7529
boli@@ 7529
efficacy 7528
engaged 7522
here@@ 7519
syste@@ 7518
crap 7514
decrease 7512
oc@@ 7510
pal 7508
frozen 7507
fuckin 7500
considerations 7499
aviation 7497
dressed 7494
disclosure 7494
ware 7493
discuss 7493
clar@@ 7489
po 7489
alcohol 7488
parameters 7487
spouse 7486
rooms 7481
photogra@@ 7481
printed 7480
issuing 7480
doub@@ 7479
destroyed 7479
relief 7479
bod@@ 7476
demonstrated 7475
perfectly 7474
disc@@ 7473
silver 7472
bow@@ 7471
chy 7471
organic 7471
attemp@@ 7468
fru@@ 7467
reserve 7466
teacher 7463
grew 7459
stabili@@ 7458
regulated 7457
fl@@ 7456
advisory 7454
clause 7452
telephone 7451
phy 7450
ate@@ 7449
se-@@ 7447
vin 7447
ker@@ 7446
mista@@ 7444
cutting 7444
installed 7440
feeding 7440
reser@@ 7431
whoever 7428
alex 7427
pants 7427
gay 7420
gon@@ 7420
condu@@ 7420
occa@@ 7416
of-@@ 7415
main@@ 7410
fulfil@@ 7409
mrs 7407
sof@@ 7407
cyprus 7406
vegetables 7406
emplo@@ 7403
d.@@ 7400
ction@@ 7396
inje@@ 7394
purcha@@ 7392
ideas 7389
meth@@ 7388
identical 7388
danny 7387
pp@@ 7386
quotas 7385
discipl@@ 7385
cr@@ 7384
hat 7382
signature 7382
urban 7382
rail 7381
blame 7380
aban@@ 7376
reality 7372
eh 7372
jail 7371
violence 7370
mula@@ 7369
tony 7363
adult 7358
mostly 7355
strengthening 7355
exemp@@ 7352
dick 7351
eye@@ 7349
acquisition 7348
sov@@ 7346
o. 7345
habit@@ 7344
labelling 7344
male 7341
mix@@ 7339
tells 7336
ou 7330
banking 7330
cau@@ 7329
cute 7328
eded 7326
revised 7320
gear 7320
auditors 7318
and-@@ 7317
ror 7314
macro@@ 7313
formation 7313
nity 7310
finger 7310
measurement 7307
opti@@ 7305
confidence 7299
capit@@ 7298
closure 7295
exce@@ 7294
dumped 7292
governments 7291
monetary 7290
rice 7288
pet 7287
breakfast 7281
en.0100@@ 7281
amend 7281
warri@@ 7274
extend 7273
non 7273
shooting 7273
objections 7271
eggs 7269
express 7269
histori@@ 7266
stole 7265
initiated 7265
charter 7264
aci@@ 7261
assembly 7260
kan@@ 7257
demonstrate 7254
jake 7251
aero@@ 7249
substitu@@ 7246
borders 7246
derived 7241
disappe@@ 7241
creditor 7241
plays 7237
ssy 7234
intelligence 7231
dney 7230
magi@@ 7230
gly@@ 7229
railway 7228
embarra@@ 7228
bomb 7222
relate 7221
yo@@ 7219
tha@@ 7218
bea@@ 7214
thou@@ 7213
bits 7207
rapporteur 7207
ancient 7207
gle 7206
indicates 7205
turkey 7205
latvia 7205
truly 7203
» 7203
touched 7201
balls 7201
sheets 7201
errors 7200
excessive 7200
reflect 7199
~ 7195
bom@@ 7190
students 7186
sau@@ 7185
mili@@ 7185
loading 7185
angle 7185
india 7183
mber 7183
penalties 7182
customer 7179
ale@@ 7179
guaranteed 7176
gly 7176
tar 7176
eigh@@ 7173
alli@@ 7173
prohibited 7167
sever@@ 7167
ps@@ 7165
stepped 7165
ho 7163
fair@@ 7160
century 7160
base@@ 7159
rolling 7158
rome 7158
rescue 7157
steri@@ 7154
sign@@ 7152
expe@@ 7150
paci@@ 7150
consequence 7150
shap@@ 7149
asing 7149
wre@@ 7148
critical 7148
familiar 7144
pis@@ 7144
gas@@ 7143
stry 7140
secrets 7140
favourable 7140
op 7139
involve 7138
africa 7135
firms 7130
innocent 7130
toxi@@ 7129
inde@@ 7128
ce. 7126
invi@@ 7126
investigations 7125
hypo@@ 7122
posi@@ 7121
celebra@@ 7121
strugg@@ 7116
discovered 7112
virus 7111
cup 7111
lee 7108
introdu@@ 7107
invo@@ 7107
ordin@@ 7104
laboratory 7100
cry 7100
importers 7098
mble 7091
coher@@ 7090
subje@@ 7089
fabri@@ 7089
admissible 7088
ruption 7088
une@@ 7087
permission 7087
breaking 7086
tool 7084
refusal 7076
undertaken 7076
recitals 7075
responsibilities 7075
than@@ 7075
cational 7075
care@@ 7074
ill@@ 7073
retail 7073
voluntary 7068
offices 7066
lla 7064
pota@@ 7063
ples 7060
subsidi@@ 7059
seri@@ 7058
bullshit 7058
lip@@ 7058
cere@@ 7057
mit 7057
announ@@ 7057
taught 7056
fal@@ 7055
bunch 7055
prece@@ 7052
criterion 7050
bilateral 7049
rene@@ 7045
correctly 7045
manufacturing 7044
consists 7040
erdf 7040
spac@@ 7039
tow@@ 7038
stein 7037
saving 7035
sarah 7033
necessarily 7032
attra@@ 7032
plastic 7032
smaller 7031
ole 7030
acy 7026
variety 7024
ids 7023
visa 7021
discretion 7020
fications 7017
pages 7010
solidarity 7009
threshold 7003
votes 7002
lied 7000
dies 7000
suf@@ 6997
case@@ 6997
reve@@ 6992
kick 6990
ooh 6989
photo 6988
refused 6987
prohibition 6986
metal@@ 6985
stero@@ 6984
continu@@ 6982
keeps 6980
asshole 6977
menu 6976
yo 6976
cm 6975
nomin@@ 6975
hanging 6974
limitation 6974
disap@@ 6969
soil 6966
itable 6966
carrier 6965
peti@@ 6962
taneous 6962
crop@@ 6961
providers 6957
frame 6955
tely 6952
threw 6951
medium 6950
bert 6949
administrator 6944
ased 6943
your@@ 6942
edu@@ 6939
lic 6939
cans 6937
alist 6935
ste 6935
mbled 6933
jen@@ 6932
descri@@ 6930
aged 6928
intention 6927
submits 6925
surgery 6924
low-@@ 6924
hidden 6923
barely 6920
zes 6920
fulfilled 6918
hero 6916
devi@@ 6915
incorporated 6914
pointing 6913
thousands 6911
gating 6909
stant 6908
conclu@@ 6907
larger 6906
rent 6905
guilty 6900
universe 6900
cancel@@ 6897
runs 6897
delete 6894
diagno@@ 6891
dare 6890
grown 6890
assist 6889
wet 6880
weather 6880
repeated 6878
plying 6876
tables 6876
bathroom 6873
beach 6872
differentiated 6869
neighbor@@ 6869
loaded 6867
glu@@ 6864
toxicity 6862
objects 6862
guide 6860
judi@@ 6859
increases 6856
te-@@ 6856
ii@@ 6852
appearance 6851
scu@@ 6850
turnover 6850
silent 6846
exported 6845
sodium 6842
dia 6841
provider 6836
incidence 6833
founded 6831
convergence 6829
usa@@ 6826
phe@@ 6824
availability 6824
part@@ 6823
aro@@ 6820
associations 6820
tested 6819
tradi@@ 6813
ssa 6812
temp@@ 6811
tall 6809
bond 6808
abroad 6808
refunds 6808
sized 6806
winter 6804
conferred 6802
del 6802
transparent 6798
respond 6797
distribu@@ 6797
nurse 6795
adults 6794
subsidiary 6794
multi-@@ 6791
vii 6790
horses 6789
protective 6788
alert 6787
p.@@ 6784
gent 6783
congratulations 6780
ami@@ 6775
ech@@ 6773
minist@@ 6773
slovenia 6772
a1 6772
prob@@ 6772
neu@@ 6771
ddy 6770
wizard 6769
wag@@ 6769
assessing 6766
statutory 6762
carri@@ 6755
formu@@ 6752
closing 6751
hra@@ 6750
ting@@ 6750
arbitration 6748
ist 6747
martin 6743
precise 6739
swa@@ 6738
insufficient 6734
provin@@ 6730
conten@@ 6729
quarter 6728
adi@@ 6727
lau@@ 6727
awesome 6724
servants 6723
integra@@ 6722
diplom@@ 6720
open@@ 6716
preci@@ 6716
publications 6714
ck-@@ 6714
ura 6714
tious 6712
hard@@ 6711
beneath 6710
sten@@ 6709
counter 6707
plenty 6707
revo@@ 6706
alle@@ 6706
holi@@ 6705
hop@@ 6702
remembered 6701
tted 6700
data@@ 6700
transfers 6699
incre@@ 6698
meal 6691
liqui@@ 6689
ay 6686
supports 6686
hin@@ 6684
rop@@ 6683
inve@@ 6676
switch 6674
surroun@@ 6674
ly-@@ 6670
lap@@ 6668
ired 6666
serving 6661
liquid 6661
steal 6659
affecting 6658
wheel 6658
federation 6658
entering 6656
roo@@ 6653
infection 6652
?@@ 6647
shou@@ 6647
cooperate 6647
library 6645
studied 6643
billy 6643
tongue 6639
thor@@ 6636
fted 6636
bell 6636
soli@@ 6636
what@@ 6635
circum@@ 6635
definitions 6633
ints 6632
storm 6629
taxable 6626
handed 6626
e.@@ 6626
eligibility 6626
divi@@ 6622
py 6616
rat 6611
dam@@ 6610
answers 6610
mai@@ 6610
communicated 6608
corporate 6607
veri@@ 6607
western 6606
fines 6603
shadow 6601
explanation 6601
wore 6599
heaven 6599
exclusively 6598
fellow 6596
upstairs 6593
stayed 6593
belong 6593
is. 6592
cl@@ 6591
prin@@ 6591
mum 6590
pocket 6588
configuration 6587
cigare@@ 6586
g. 6582
dust 6579
cir@@ 6576
signment 6575
pharmacokine@@ 6573
iec 6563
smith 6563
essentially 6562
cartel 6560
tali@@ 6558
sharp 6558
bad@@ 6558
restriction 6557
divided 6557
thing. 6556
three-@@ 6555
stin@@ 6555
interpre@@ 6554
bother 6554
deleted 6554
judgments 6552
lake 6552
foun@@ 6552
compulsory 6549
suspi@@ 6549
millions 6548
household 6547
posse@@ 6544
bones 6544
protecting 6544
eur@@ 6542
confirm 6542
johnny 6541
sque@@ 6540
etc 6538
journey 6538
initiation 6537
dani@@ 6537
tifi@@ 6536
subheading 6534
recovered 6532
ison 6532
regularly 6531
aye 6530
know@@ 6528
strike 6521
r. 6521
suspended 6521
snow 6521
ference 6520
sphere 6520
zar@@ 6518
producing 6517
definitive 6517
rating 6515
justify 6513
ox@@ 6510
bleeding 6508
­@@ 6507
eventually 6502
ared 6496
house@@ 6495
placebo 6494
bou@@ 6492
asleep 6489
fe 6487
sac@@ 6484
four@@ 6484
bobby 6483
welfare 6483
absolute 6482
doc 6482
awful 6482
admi@@ 6481
paediatric 6476
nah 6475
gil@@ 6474
residu@@ 6471
deserve 6469
rolled 6467
reliable 6466
lateral 6466
/2000 6466
ok@@ 6466
thy@@ 6465
deck 6464
disappeared 6463
player 6462
fan@@ 6459
loose 6458
letting 6458
decreased 6455
representation 6454
forgotten 6453
speak@@ 6452
tenders 6452
sday 6451
ckle 6450
ach@@ 6450
pharmacist 6449
petro@@ 6446
sit@@ 6444
diseases 6443
height 6442
payable 6442
sey 6439
practi@@ 6435
unique 6434
woun@@ 6430
houses 6426
rank 6423
fic 6421
behaviour 6420
circle 6418
pushed 6415
innovative 6413
false 6410
lity 6410
specification 6410
p.m 6406
experienced 6398
sus 6397
satisfy 6396
plo@@ 6396
resource 6395
becoming 6394
landing 6393
percent 6393
medium-@@ 6392
ughter 6392
bl@@ 6388
cream 6388
england 6387
horizontal 6387
worker 6385
beli@@ 6385
b.@@ 6383
c( 6383
manag@@ 6381
conclude 6379
arily 6379
spending 6377
zer 6376
staring 6373
geor@@ 6372
brief@@ 6369
stomach 6369
stronger 6365
fers 6364
craw@@ 6362
stru@@ 6361
orien@@ 6361
chicken 6360
colour 6356
mping 6354
faced 6354
shift 6351
prohi@@ 6350
ration 6349
progre@@ 6349
schengen 6348
bay 6345
seed 6343
enter@@ 6340
short@@ 6339
wol@@ 6338
deri@@ 6336
propo@@ 6336
fan 6332
powered 6330
roof 6330
esf 6330
families 6328
render 6326
ceiling 6324
visi@@ 6323
sni@@ 6322
offers 6322
goal 6314
sma@@ 6313
directory 6313
ears 6310
propose 6309
survive 6308
hepatic 6306
involvement 6305
fai@@ 6303
pad@@ 6303
ja 6301
legisla@@ 6300
majesty 6299
secon@@ 6295
qualify 6295
sym@@ 6292
decides 6292
aunt 6291
obtaining 6291
tower 6291
launch 6290
pattern 6290
assurance 6289
impose 6289
filter 6283
consultations 6281
phosp@@ 6279
periodi@@ 6278
gods 6277
candidates 6277
dimension 6276
settle 6274
oxy@@ 6273
one@@ 6273
senior 6267
repealed 6265
gru@@ 6264
afford 6260
flowers 6257
exit 6256
weekend 6255
persi@@ 6255
cleared 6252
famous 6250
rd 6247
ctivity 6245
rats 6244
cake 6244
kne@@ 6243
b-@@ 6242
deriva@@ 6241
authorisations 6240
fail 6239
considerable 6239
thomas 6239
notably 6237
legi@@ 6237
raising 6236
clients 6235
pru@@ 6235
if@@ 6234
daniel 6234
conven@@ 6233
ris 6232
dable 6230
murdered 6229
theory 6226
ne. 6225
speech 6224
sports 6217
> 6216
dg 6216
cle 6215
now@@ 6214
dero@@ 6211
resistance 6211
dismissed 6209
adjustments 6209
conversion 6209
centres 6208
gar 6207
expli@@ 6207
ines 6207
sors 6204
tos 6203
secretary 6202
vaccin@@ 6202
ene 6202
opera@@ 6197
tiv@@ 6196
whilst 6194
strategies 6190
scri@@ 6190
ownership 6189
sim@@ 6189
lion 6188
mly 6181
documen@@ 6181
volunte@@ 6181
consisting 6179
stan 6178
connect 6177
dne@@ 6175
extremely 6173
hero@@ 6172
lithuania 6171
dest 6170
complemen@@ 6169
northern 6169
ied 6169
tier 6168
utili@@ 6167
wording 6166
sanctions 6164
spare 6162
primarily 6162
cit 6161
assumed 6159
scra@@ 6159
ep@@ 6155
green@@ 6154
ms. 6153
yep 6150
achieving 6150
supervi@@ 6149
gie 6148
mous 6146
cating 6145
identifi@@ 6144
domain 6142
mani@@ 6140
leads 6140
ange@@ 6139
ee@@ 6139
bel 6138
sp 6138
fred 6138
plate 6137
tention 6136
nels 6132
meta@@ 6131
butter 6125
recording 6123
knock 6123
steve 6123
hydra@@ 6120
employer 6120
abi@@ 6120
ang 6118
mommy 6118
dimen@@ 6117
switzerland 6117
preparing 6116
replacement 6114
decree 6113
charles 6112
flows 6112
prc 6110
and@@ 6109
expi@@ 6108
explanatory 6108
investors 6107
slept 6106
< 6106
rai@@ 6105
sectoral 6104
sheriff 6102
differ@@ 6102
channel 6102
burning 6098
brow@@ 6096
urgent 6094
premises 6085
ut@@ 6085
independence 6085
day@@ 6084
tioning 6081
mm@@ 6078
pig 6078
strea@@ 6077
recogni@@ 6075
sorry. 6074
classes 6074
password 6073
communi@@ 6072
surely 6067
lab 6066
mus 6066
malta 6063
renewable 6061
cali@@ 6061
nt 6060
wondered 6059
biggest 6059
supreme 6058
friendly 6057
pure 6056
ex-works 6056
fa 6053
supplier 6053
reserved 6050
delegation 6049
acted 6049
yard 6048
viii 6046
wishes 6044
ssa@@ 6043
apo@@ 6042
presiden@@ 6040
jour@@ 6039
cture 6039
heli@@ 6038
cho 6037
standardi@@ 6036
coat 6035
ridiculous 6033
mr@@ 6033
restaurant 6032
pop 6030
ely 6030
rapid 6030
mira@@ 6029
concentra@@ 6028
woods 6027
dom 6027
texts 6025
ue 6024
incorpora@@ 6024
believ@@ 6023
dire@@ 6022
gently 6021
clini@@ 6021
removal 6019
reaching 6018
unds 6018
representing 6017
nc@@ 6016
spir@@ 6015
xed 6014
textile 6013
discharge 6012
ongoing 6011
citizen 6010
represents 6007
administra@@ 6007
derer 6005
branch 6002
conservation 6000
envisaged 5998
cleaning 5996
blow@@ 5991
combat 5987
ogra@@ 5986
wound 5984
doubts 5979
iny 5978
year-old 5976
inti@@ 5976
robert 5974
appellant 5970
yar@@ 5968
short-@@ 5966
personally 5966
trick 5965
frigh@@ 5963
b. 5963
laughed 5962
polish 5962
breathing 5961
issu@@ 5954
apologize 5954
ocean 5953
portuguese 5950
promo@@ 5949
difficulty 5946
kal@@ 5945
disgu@@ 5944
inspections 5943
die@@ 5943
eties 5942
analo@@ 5939
defense 5939
obstac@@ 5935
wave 5933
asylum 5929
p.m. 5926
semin@@ 5925
tied 5922
betra@@ 5921
struck 5920
direct@@ 5919
eastern 5919
horrible 5919
prime 5917
riding 5916
semi@@ 5916
transit 5913
lamp 5912
advertising 5911
spen@@ 5910
laughing 5910
convin@@ 5910
gible 5909
deal@@ 5908
employee 5907
amed 5907
roman@@ 5906
aller@@ 5904
gia 5903
regardless 5902
argu@@ 5902
continuous 5899
that. 5898
carriers 5898
fs 5895
rup@@ 5895
exact 5893
exposed 5893
glanced 5890
door@@ 5889
convi@@ 5887
au 5884
capsu@@ 5882
hung 5879
fate 5878
infor@@ 5876
ferred 5875
borro@@ 5874
ye 5872
correction 5869
lates 5866
zen@@ 5863
princess 5862
retro@@ 5861
secondly 5861
monitored 5859
lly 5859
ona 5855
kate 5855
scan@@ 5851
prints 5851
suggested 5850
anger 5847
naked 5845
sacrifi@@ 5842
bags 5842
chel@@ 5840
platform 5840
installations 5839
repair 5839
mol@@ 5839
challen@@ 5838
soldier 5837
fought 5836
ousness 5835
dama@@ 5834
devil 5834
angel 5832
models 5832
enhance 5830
evalu@@ 5828
pair 5827
yi@@ 5826
ita 5825
domin@@ 5822
prolon@@ 5821
beauty 5818
rough@@ 5817
thri@@ 5817
evaluated 5814
miner@@ 5811
iz@@ 5808
place@@ 5807
worl@@ 5806
burned 5805
attorney 5803
intellectual 5802
foo@@ 5799
british 5799
county 5799
pier@@ 5799
bie 5798
interaction 5796
dna 5794
objection 5793
shock 5793
funded 5792
brit@@ 5790
frequ@@ 5790
continuation 5790
expla@@ 5789
enhan@@ 5786
itation 5786
copies 5786
crow@@ 5782
louis 5774
brings 5769
convinced 5769
admitted 5766
visible 5764
hope@@ 5762
side@@ 5761
recognize 5761
eddie 5761
cas 5758
affe@@ 5758
voting 5752
supplementary 5751
popu@@ 5751
visual 5751
wei@@ 5751
describe 5749
week@@ 5749
exerci@@ 5747
expertise 5744
cents 5744
consistency 5742
scent 5741
flesh 5741
paras 5741
collect 5741
outer 5740
prac@@ 5740
ukraine 5740
stations 5739
fuels 5738
miti@@ 5735
exceptions 5733
excited 5733
venture 5732
wire 5730
dol@@ 5730
transition 5728
dra 5728
\@@ 5727
long@@ 5726
wea@@ 5726
stics 5725
shado@@ 5725
engines 5719
measuring 5719
giant 5719
bid 5719
helps 5719
fed 5719
coach 5718
accommod@@ 5717
accessible 5717
gray 5716
gates 5716
student 5715
ania 5714
shame 5714
discussion 5713
relates 5710
play@@ 5710
sr@@ 5710
chro@@ 5709
marking 5709
clear@@ 5709
lene 5707
declare 5706
tured 5706
era 5705
forth 5704
infusion 5700
william 5698
hau@@ 5696
scheduled 5692
sob@@ 5690
chers 5688
estonia 5688
acade@@ 5687
contacts 5687
stolen 5685
stones 5685
bureau 5684
follow-up 5683
creature 5681
concrete 5681
meters 5681
no-@@ 5680
gr@@ 5677
occur@@ 5677
navigation 5677
promp@@ 5673
trained 5673
gender 5672
composed 5672
hob@@ 5671
guil@@ 5670
unlawful 5670
ckness 5670
assu@@ 5667
parallel 5667
incompatible 5666
pursued 5666
wolf 5665
unfortunately 5662
deser@@ 5661
suppliers 5660
mas 5654
apparatus 5652
japan 5652
bases 5652
confi@@ 5649
maintaining 5647
facilita@@ 5647
ria 5646
separately 5646
calculating 5645
rel 5645
ds@@ 5643
larity 5642
facing 5642
gins 5642
royal 5640
fitted 5638
ali 5637
lift 5636
ana@@ 5636
fallen 5634
mountains 5634
repeat 5633
roger 5632
oh@@ 5632
tle@@ 5628
w. 5627
kee@@ 5627
awareness 5626
inher@@ 5625
share@@ 5624
hey. 5623
neighbour@@ 5621
monster 5621
seg@@ 5618
sons 5618
subsidy 5616
pigs 5614
t/@@ 5614
cousin 5610
dozen 5607
seventh 5607
whereby 5604
asks 5604
legality 5602
therein 5600
wash 5599
shore 5599
spr@@ 5598
packa@@ 5596
manu@@ 5596
toler@@ 5594
industries 5593
breathe 5593
dutch 5591
revision 5590
requiring 5590
fucked 5587
terminal 5586
smooth 5586
dam 5586
cod@@ 5584
lt 5583
twenty-@@ 5581
dine 5580
crowd 5579
extre@@ 5579
belt 5572
vial 5572
rip 5572
driven 5569
complicated 5567
pleased 5567
respected 5566
housing 5562
ski@@ 5562
harm@@ 5562
like@@ 5560
movable 5559
gos 5558
termination 5557
actors 5557
sand 5555
dean 5553
proved 5552
king@@ 5551
rying 5550
amb@@ 5549
mere 5548
broadca@@ 5544
sooner 5543
nowhere 5542
foreseen 5541
mediation 5541
uh-@@ 5541
declarations 5540
mandate 5539
pin 5539
tommy 5538
spra@@ 5536
use@@ 5536
crying 5535
brilliant 5531
swal@@ 5529
exercised 5526
tings 5525
muni@@ 5523
liar 5521
comment 5521
figh@@ 5520
holders 5518
buried 5516
directed 5516
precious 5514
acceptable 5514
lip 5513
pres@@ 5513
dead@@ 5513
folks 5511
sunday 5511
thick 5510
sionally 5508
teen@@ 5507
access@@ 5501
crossed 5501
credi@@ 5500
healthcare 5500
estimate 5499
coast 5497
questionnaire 5496
publish 5493
ckers 5493
ville 5490
concer@@ 5488
announced 5486
sweetheart 5481
biological 5480
continues 5478
territories 5478
arise 5477
sor 5473
lim@@ 5473
kis@@ 5473
bitu@@ 5472
audit@@ 5472
des@@ 5471
prefer 5469
oration 5469
sci@@ 5469
season 5469
pretend 5468
distra@@ 5465
competitors 5464
rising 5463
holdings 5461
insert 5457
organization 5456
generated 5456
vertical 5450
susta@@ 5449
interrup@@ 5449
olly 5448
recover 5447
dependent 5444
grin@@ 5444
consolidated 5444
suicide 5443
provi@@ 5443
spin@@ 5442
mia 5441
alleging 5440
diamon@@ 5437
compens@@ 5437
itability 5435
modern 5435
sne@@ 5432
prosecutor 5429
wrap@@ 5428
ticket 5427
drove 5426
confir@@ 5426
instal@@ 5426
streets 5425
abuse 5425
pated 5424
notifi@@ 5423
plea@@ 5421
desi@@ 5420
child@@ 5418
odd 5418
reci@@ 5415
complaints 5415
launched 5414
expec@@ 5412
paint 5409
ckets 5409
setup 5406
i‑@@ 5406
enlar@@ 5405
mobili@@ 5405
sual 5404
alterna@@ 5404
cook 5402
islands 5401
anxi@@ 5396
recov@@ 5395
c.@@ 5395
confusion 5395
largest 5395
relatively 5392
ctively 5391
acceptance 5391
cried 5391
sty@@ 5390
tea@@ 5389
tc 5388
finger@@ 5386
doctors 5386
transmitted 5383
methodology 5379
disk 5379
shake 5378
him. 5377
rupt 5377
bailiff 5377
jointly 5373
assessments 5373
shment 5372
comb@@ 5372
chasing 5368
mmed 5368
draw@@ 5368
penalty 5368
repor@@ 5366
excess 5365
belgian 5360
detected 5358
magazine 5357
gee 5357
tone 5354
alarm 5354
endor@@ 5352
partially 5352
han 5351
screw 5350
possession 5350
prison@@ 5348
ables 5347
ltd 5347
passa@@ 5345
eth@@ 5344
democratic 5342
seeks 5342
fav@@ 5341
aliz@@ 5340
lia 5340
ited 5339
toi@@ 5337
friday 5337
mons 5335
circulation 5334
hil@@ 5333
kim 5332
garden 5331
i. 5328
uring 5327
adopting 5327
avi@@ 5326
returns 5323
seats 5321
causes 5319
variable 5319
dragon 5318
rum 5317
sustainability 5312
laun@@ 5311
hou@@ 5309
kni@@ 5307
ge-@@ 5307
safeguard 5306
tears 5305
tour 5305
precautions 5302
unity 5302
clou@@ 5301
sition 5300
iceland 5299
partly 5299
ent@@ 5297
cardi@@ 5296
cher@@ 5295
tum@@ 5294
younger 5293
tax@@ 5291
lit 5290
offering 5288
golden 5287
constitutional 5287
inspe@@ 5287
assistant 5286
interview 5285
f-@@ 5284
nin@@ 5284
examples 5281
combin@@ 5280
evi@@ 5277
situated 5277
virtue 5276
techniques 5276
unex@@ 5276
amy 5272
qualifications 5271
exclusion 5271
anne 5271
targeted 5269
pel@@ 5269
groun@@ 5269
ink 5268
ln@@ 5267
advantages 5265
arthur 5265
grow@@ 5264
nutri@@ 5264
human@@ 5262
begin@@ 5261
esca@@ 5258
entrepren@@ 5256
adapted 5256
eib 5256
quietly 5256
#@@ 5255
chee@@ 5255
contro@@ 5255
manual 5255
rows 5254
addressee 5253
ald 5253
expressly 5253
reimbursement 5252
cf@@ 5250
premi@@ 5245
thirty 5245
isra@@ 5245
ameri@@ 5244
chemicals 5244
climb@@ 5243
belongs 5243
pursue 5241
oxide 5241
walter 5239
unt 5239
ttered 5238
concomit@@ 5236
protein 5235
glasses 5234
dir@@ 5232
japanese 5232
dar 5231
ult 5231
nis 5229
equipped 5226
license 5226
h. 5225
iness 5225
loud 5223
ghost 5222
continuing 5222
statute 5222
suffering 5221
translation 5221
beam 5221
saturday 5221
effe@@ 5219
precisely 5219
jo 5218
proceed 5218
grave 5217
pollution 5216
indicating 5214
infringements 5214
officially 5211
conjunction 5211
lifted 5210
enabling 5210
sensitivity 5208
vo 5208
forming 5204
withdrawn 5204
vulnerable 5202
wherever 5199
guest 5193
expen@@ 5193
footnote 5192
reforms 5192
calcu@@ 5192
bullet 5192
manufacturers 5191
inqui@@ 5191
appli@@ 5190
plain 5189
inserted 5188
concep@@ 5188
tisation 5187
mg/kg 5187
burg 5187
eries 5186
nes@@ 5185
recipient 5182
spre@@ 5182
ab 5181
itors 5179
reason@@ 5175
treat@@ 5175
tobacco 5174
requesting 5174
bilities 5174
dried 5170
andy 5170
cargo 5169
lit@@ 5169
rapidly 5168
bucks 5168
ira@@ 5163
fever 5160
arrested 5160
dis 5159
steady 5159
risk@@ 5159
treaties 5156
yn 5155
mile 5155
initiate 5153
at-@@ 5153
preceding 5153
authentic 5151
lating 5147
pse 5147
depend 5147
hunt 5144
kit@@ 5144
mali@@ 5144
satellite 5141
gmbh 5139
knees 5137
designs 5135
tus 5134
involves 5133
gau@@ 5132
spoken 5131
gn@@ 5131
inspi@@ 5131
bi 5130
tched 5130
certified 5130
constant 5130
invite 5127
plates 5126
savings 5124
hunting 5123
reputation 5121
bia 5120
expensive 5119
specialised 5119
rachel 5118
km 5117
antici@@ 5116
film-coated 5115
ct-@@ 5114
destruction 5111
nur@@ 5110
lous 5109
depen@@ 5109
fails 5108
welcomes 5104
obje@@ 5104
geous 5104
swee@@ 5101
erable 5101
book@@ 5100
n.@@ 5100
caution 5098
score 5098
light@@ 5098
slee@@ 5098
universal 5097
ague 5097
memories 5095
movements 5095
equally 5093
brief 5092
washington 5091
scienti@@ 5090
conscious 5089
afri@@ 5087
lately 5085
drinks 5083
cos 5082
est@@ 5080
legen@@ 5079
tant 5078
ugly 5078
grass 5078
leather 5077
failing 5077
ement 5075
remedi@@ 5075
prie@@ 5074
lamps 5073
repealing 5073
s 5071
quin@@ 5067
accompli@@ 5065
salt 5064
interface 5064
ode 5063
degrees 5063
bread 5063
gravity 5061
≥ 5060
eding 5060
recommen@@ 5059
marke@@ 5058
dilu@@ 5057
mother@@ 5057
superi@@ 5057
chose 5056
moderate 5054
functional 5054
elsewhere 5053
apologi@@ 5052
interoperability 5052
led@@ 5051
arest 5051
airlines 5050
intra-@@ 5050
sion@@ 5049
mits 5047
deca@@ 5046
profession 5045
duke 5044
discussed 5043
foundation 5042
gely 5042
freeze 5042
smoking 5037
opa@@ 5037
unlike 5037
oils 5036
cereals 5036
distinction 5034
remind 5033
hae@@ 5033
patri@@ 5030
transfer@@ 5029
secured 5028
engine@@ 5026
cuts 5025
friend@@ 5023
investor 5022
preventing 5021
supplemen@@ 5021
reviewed 5021
dominant 5019
engineering 5018
tip 5017
gus 5016
deb@@ 5016
eur-lex 5014
ly. 5014
ts@@ 5013
posts 5012
plat@@ 5011
estimates 5011
tedly 5010
parking 5009
connections 5009
envelo@@ 5008
sman 5008
tg@@ 5007
solve 5006
champi@@ 5005
inforegio 5003
foodstuffs 5003
alty 5003
deliber@@ 5001
stimu@@ 4999
jason 4997
testi@@ 4997
rov@@ 4996
drag 4995
hesit@@ 4995
preparatory 4994
parti@@ 4993
fold 4993
leo 4992
exist@@ 4992
insane 4990
baseline 4990
shr@@ 4990
harder 4989
script 4989
cians 4988
compu@@ 4987
manufactured 4987
pie 4987
wen@@ 4987
argued 4985
impac@@ 4985
occurs 4984
psychi@@ 4982
pre-accession 4980
justi@@ 4980
hone@@ 4979
heating 4978
fake 4978
newspa@@ 4978
vul@@ 4978
sour@@ 4978
mb 4978
croatia 4977
sha 4977
berg 4976
hoo@@ 4974
dispat@@ 4973
simon 4973
swiss 4971
adam 4970
outstanding 4970
acquis 4969
dedi@@ 4968
silly 4968
mber@@ 4968
aboard 4967
asser@@ 4965
confidentiality 4964
twelve 4964
install 4964
lam@@ 4961
indian 4959
mod@@ 4959
edit 4957
rear 4956
survey 4954
olaf 4953
ology 4953
coal 4953
corrections 4952
poverty 4950
presumption 4950
sweetie 4946
sport 4946
alien 4946
ag 4945
collap@@ 4944
assemb@@ 4941
edward 4940
deadlines 4937
moments 4936
vag@@ 4935
enhanced 4935
adver@@ 4933
domici@@ 4933
bars 4931
nee@@ 4930
privacy 4930
accep@@ 4929
pharmaceutical 4929
end-@@ 4929
custom 4927
confused 4927
players 4926
zones 4925
dollar 4923
accurate 4920
successfully 4919
separ@@ 4919
opposite 4918
damned 4918
appeals 4917
bal 4916
fibres 4915
images 4913
pray 4913
fies 4909
pipe 4906
dumb 4904
pot 4904
ema@@ 4903
gence 4902
ay@@ 4901
lands 4901
tissue 4900
honestly 4900
bite 4897
cod 4897
bedroom 4896
bag@@ 4895
occasion 4894
cycles 4894
infra@@ 4893
p/st 4893
acceler@@ 4893
cooperating 4893
divor@@ 4893
atmo@@ 4892
vani@@ 4889
taneously 4889
http://@@ 4888
democracy 4888
conciliation 4887
disabled 4887
bov@@ 4887
brian 4886
jon@@ 4884
enemies 4883
performing 4883
jeal@@ 4882
suffer 4882
chris 4880
thank@@ 4880
acute 4880
egg 4878
lus 4878
kir@@ 4875
vy 4874
sku@@ 4873
restra@@ 4873
craft 4873
incredible 4872
woke 4870
kra@@ 4869
separated 4868
neuro@@ 4868
tty 4867
pulling 4867
radiation 4867
prefer@@ 4866
fix@@ 4864
haemo@@ 4864
scott 4862
hs 4862
deposit 4862
tank 4861
individu@@ 4860
mirror 4860
irrespective 4860
c/@@ 4859
decre@@ 4858
spect@@ 4856
shower 4852
audits 4849
buying 4848
meets 4847
pharma@@ 4846
luke 4846
reflected 4845
expecting 4842
nal 4841
debts 4840
so-@@ 4839
sec 4838
unemployment 4838
subsidies 4837
pleasant 4835
impre@@ 4833
titles 4833
pher@@ 4832
grouping 4831
pete 4829
potentially 4829
volumes 4828
dwar@@ 4827
perspective 4825
basically 4824
super 4823
other@@ 4821
dder 4820
imposition 4820
sures 4816
sequ@@ 4816
offence 4814
barri@@ 4814
cancel 4814
mbo@@ 4813
sounded 4810
attractive 4808
resear@@ 4806
sav@@ 4805
enzy@@ 4802
likelihood 4801
phy@@ 4800
caro@@ 4799
dings 4797
hundreds 4796
proto@@ 4794
muscle 4794
leaders 4792
tex 4792
alp@@ 4791
rated 4790
lings 4790
comfort 4789
institu@@ 4788
needle 4787
good. 4787
football 4787
vary 4786
dous 4786
jacket 4786
trace 4785
assass@@ 4785
oling 4785
presu@@ 4784
tion. 4784
ias 4782
attacked 4780
foster 4780
simul@@ 4778
cure 4778
autom@@ 4773
alan 4773
revi@@ 4773
campaign 4770
measu@@ 4770
advocate 4769
undertake 4769
profits 4766
http://ec.europa.eu/@@ 4765
string 4763
diss@@ 4762
&d 4761
scrat@@ 4760
tube 4760
appreci@@ 4759
shell 4759
mechanical 4758
atu@@ 4757
kon@@ 4755
capa@@ 4755
tempor@@ 4755
whispered 4755
er-@@ 4755
iro@@ 4753
width 4752
ttle 4752
co-operation 4751
heal@@ 4751
hosp@@ 4751
deteri@@ 4749
warrant 4749
latin 4749
kinds 4749
lending 4747
iri@@ 4747
fat@@ 4747
sky@@ 4746
mm. 4745
gi 4744
printing 4744
vital 4744
slovakia 4738
dant 4738
dancing 4738
unusual 4737
sable 4736
elimination 4733
magnetic 4732
productive 4732
ised 4730
substantive 4728
vated 4728
desire 4726
worn 4726
gov@@ 4726
mately 4725
muse@@ 4724
verified 4723
hired 4723
im 4723
priest 4722
multilateral 4722
www.@@ 4722
boxes 4721
lu 4719
ri 4718
topics 4717
carb@@ 4716
rubber 4716
mayor 4715
eu/1/@@ 4715
spell 4712
crash 4711
symbol 4710
cenelec 4709
mann 4708
subscri@@ 4708
± 4707
constra@@ 4706
shoulders 4706
forwar@@ 4703
monthly 4702
belonging 4702
formula 4701
cabin 4700
d/@@ 4699
establishes 4697
ese 4695
ani 4693
bott@@ 4691
static 4690
omin@@ 4689
supplement 4686
joy 4686
red@@ 4685
satisfac@@ 4685
oner 4685
roun@@ 4684
ingredients 4684
clark 4683
committees 4682
defend 4681
crucial 4680
tia 4678
coverage 4675
wron@@ 4675
unfair 4674
kidna@@ 4669
kat@@ 4669
ppy 4669
focu@@ 4669
dea@@ 4668
maps 4668
enabled 4667
equality 4667
trap 4667
naturally 4666
chap@@ 4665
arran@@ 4665
double-@@ 4664
relationships 4664
terrorist 4663
disclo@@ 4662
trance 4658
flexi@@ 4658
mediterranean 4657
xy@@ 4656
chairman 4656
ow 4655
complied 4655
member@@ 4655
inary 4653
mise 4651
restore 4648
kings 4645
blood@@ 4645
weal@@ 4645
badly 4643
beast 4641
admiral 4640
iran 4639
ed. 4639
curious 4636
violent 4636
blocks 4635
fi 4635
root 4635
contain@@ 4635
desert 4634
w-@@ 4633
mid-@@ 4633
survival 4632
exhausted 4632
unlikely 4631
recommend 4629
flow@@ 4629
sed@@ 4629
intraven@@ 4627
elderly 4624
priva@@ 4619
consulting 4618
authorising 4618
dit@@ 4618
genuine 4617
indirectly 4615
straigh@@ 4615
tually 4615
wide@@ 4612
ian 4612
ater 4611
associ@@ 4611
hazar@@ 4611
focused 4610
esc@@ 4610
cd 4609
coordinated 4608
nomenclature 4607
choco@@ 4607
long-@@ 4605
conveni@@ 4605
nights 4605
secretariat 4605
type-approval 4602
tai@@ 4601
clothing 4599
preten@@ 4598
disaster 4596
kevin 4596
ctic 4594
tickets 4594
gest 4594
gari@@ 4593
third-country 4591
mask 4590
ologi@@ 4590
dding 4589
descen@@ 4588
valley 4588
cotton 4587
exempt 4587
fifty 4586
deliver@@ 4586
pale 4585
syringe 4585
illed 4584
tunnel 4584
characters 4584
sr 4582
collabor@@ 4581
doms 4580
cham@@ 4579
brave 4576
posed 4575
valuable 4575
discre@@ 4574
myst@@ 4574
milli@@ 4573
go. 4573
ctable 4571
artifi@@ 4571
control@@ 4570
monday 4569
foregoing 4569
identifying 4568
alco@@ 4567
zi 4566
frequently 4566
sers 4566
chuck 4565
every@@ 4564
fuck@@ 4564
institute 4563
partner@@ 4562
accompanying 4559
tici@@ 4559
matri@@ 4559
recep@@ 4558
concentrate 4557
attachment 4556
ending 4556
bury 4556
annie 4555
retirement 4555
filed 4555
seven@@ 4553
preferential 4552
fertility 4552
up. 4551
therapeutic 4550
possibilities 4550
ues 4549
integrity 4549
te. 4549
toes 4545
mission@@ 4544
din 4543
agrees 4542
« 4541
mild 4540
director@@ 4538
è@@ 4537
paper@@ 4537
ists 4537
passport 4536
nd 4536
musi@@ 4536
hence 4536
citly 4535
tionary 4534
forum 4533
blew 4531
blade 4531
argue 4530
intelli@@ 4529
confirmation 4528
exposures 4525
mony 4524
le. 4521
moves 4521
priso@@ 4519
aming 4519
tob@@ 4519
unk 4518
inspector 4516
eni@@ 4516
addre@@ 4514
sar 4512
hoped 4512
pep@@ 4512
enta@@ 4511
ffed 4511
reasonably 4510
grid 4510
routes 4509
incorrect 4509
vor@@ 4509
initially 4509
trigger 4508
vaccine 4508
cler@@ 4507
prescription 4506
f. 4505
motor@@ 4505
narrow 4503
raz@@ 4502
wr@@ 4501
dealt 4501
harmoni@@ 4499
boy@@ 4498
popular 4497
grey 4496
competen@@ 4496
rush 4493
balanced 4493
pounds 4493
entries 4492
lowed 4491
mexico 4490
visor 4489
chronic 4489
engag@@ 4489
deputy 4486
sear@@ 4485
x-@@ 4483
infections 4481
sump@@ 4480
n. 4478
computers 4477
locate 4477
hurts 4476
set@@ 4476
carter 4476
ed-@@ 4476
serum 4475
pation 4474
yards 4473
\x@@ 4470
reme@@ 4469
ith 4466
courage 4466
intend 4464
shareholders 4464
mix 4464
solvent 4463
bush 4461
teaching 4461
quantitative 4460
lon 4460
biodi@@ 4458
discriminatory 4458
annexed 4455
govern@@ 4454
submitting 4453
random 4452
mining 4451
reductions 4451
rol 4451
handsome 4450
relied 4448
recognized 4447
es. 4447
impa@@ 4445
dawn 4445
alism 4444
he/she 4444
calculate 4443
sional 4443
ea 4442
deposits 4442
tz 4441
ini 4441
ash 4441
container 4438
glucose 4438
substan@@ 4436
abovementioned 4434
ache 4433
contrast 4432
inci@@ 4431
exceeds 4429
now. 4429
causing 4428
wra@@ 4428
modification 4427
minim@@ 4427
migh@@ 4422
mad@@ 4422
buil@@ 4421
indent 4421
demo@@ 4417
kinda 4417
professionals 4415
rin@@ 4414
sett@@ 4413
dupli@@ 4412
gang 4412
incident 4411
evaluate 4411
bench@@ 4410
justification 4410
unit@@ 4410
dig 4409
poultry 4407
gap 4407
lli@@ 4406
resulted 4406
gained 4404
notwithstanding 4404
multiannual 4403
mming 4403
orange 4402
him@@ 4401
commissioner 4400
shov@@ 4399
motherfucker 4396
hire 4395
catches 4395
extraordinary 4395
optional 4395
thur@@ 4393
peace@@ 4393
cling 4392
colum@@ 4391
emphasi@@ 4391
substantially 4389
crimes 4389
flash 4386
barriers 4385
shots 4384
tons 4381
goals 4381
stating 4379
witch 4377
schools 4376
corn 4376
korea 4375
sher 4375
neigh@@ 4374
secu@@ 4374
wings 4372
shipment 4372
chemi@@ 4372
pos@@ 4371
attend 4371
avir 4370
tion/@@ 4370
ware@@ 4370
preamble 4370
enforceable 4370
mie 4370
scenario 4370
ix 4368
dian 4368
live@@ 4365
taining 4365
scho@@ 4365
withdraw 4364
specifies 4364
imposing 4364
omy 4363
off-@@ 4363
replies 4363
holiday 4363
gathered 4361
rocks 4361
smal@@ 4361
honour 4361
reck@@ 4360
carriage 4360
admissibility 4359
constituted 4358
lis 4357
reception 4356
world@@ 4356
premium 4356
europe@@ 4356
weighted 4356
tab 4356
timate 4355
revolu@@ 4355
activated 4354
ur 4352
sartan 4352
hr 4348
anne@@ 4348
mau@@ 4347
engage 4347
bask@@ 4347
man. 4346
emperor 4346
suck 4345
real@@ 4344
mond 4343
revealed 4343
vant 4343
flights 4342
salary 4341
fashion 4341
rope 4338
pag@@ 4338
wan 4337
zo 4337
consist 4337
phil 4334
break@@ 4334
generate 4334
ss-@@ 4334
reserves 4333
awake 4330
alex@@ 4327
hated 4327
re. 4326
fifteen 4323
inju@@ 4323
modu@@ 4322
compani@@ 4322
frag@@ 4321
marketed 4321
ethi@@ 4321
aw 4320
cock@@ 4320
santa 4319
ari 4319
beg 4318
necess@@ 4318
patter@@ 4315
strictly 4315
wee@@ 4314
distingui@@ 4314
postal 4314
lat@@ 4313
susan 4313
corporation 4310
arranged 4310
efsa 4308
uncommon 4308
inhibitors 4308
adapt 4308
massive 4307
atlantic 4307
slipped 4306
nish 4306
,5 4306
vas@@ 4306
nn 4303
blon@@ 4302
addresses 4301
greenhouse 4300
dc 4300
oria 4300
wood@@ 4299
shri@@ 4299
exclude 4298
ray@@ 4298
recognise 4298
injured 4296
fined 4294
fancy 4294
camer@@ 4293
liquidity 4292
irregularities 4292
improvements 4291
mixture 4291
similarly 4290
yment 4290
trail 4289
picking 4288
conventions 4288
doned 4288
his/her 4288
horizon 4287
empire 4287
refriger@@ 4286
squi@@ 4286
scal@@ 4286
du 4284
destin@@ 4284
grateful 4283
l.@@ 4282
recalled 4281
sheep 4281
fantastic 4279
palace 4279
tices 4279
plen@@ 4277
a/@@ 4275
particulars 4274
seas 4269
kicked 4269
swedish 4269
accuracy 4267
satisfactory 4266
zard 4266
cv 4264
lonely 4263
funeral 4261
gentleman 4261
enforced 4259
cas@@ 4259
decision-making 4259
decisive 4258
mbers 4257
terrorism 4257
cers 4257
depth 4256
dd@@ 4255
that@@ 4255
rt@@ 4254
intra@@ 4254
t.@@ 4253
dave 4250
canada 4249
egy@@ 4248
fortune 4248
screaming 4248
public@@ 4248
typical 4247
breast 4247
benefi@@ 4246
archite@@ 4246
wned 4244
partici@@ 4243
vel 4241
cares 4241
vampire 4241
singing 4235
nick@@ 4234
counts 4234
m.@@ 4234
renewal 4233
lace 4233
stake 4231
stin 4230
bean 4227
indicative 4225
reasoned 4225
conflicts 4225
emily 4224
factory 4224
surveys 4223
dynamic 4223
advan@@ 4223
juice 4222
vegetable 4221
there. 4220
lence 4218
terly 4218
noti@@ 4216
smar@@ 4216
road@@ 4214
leaned 4213
kel@@ 4212
timing 4212
babies 4210
strict 4210
beef 4208
adequately 4208
dissemination 4207
roy 4206
illness 4204
furniture 4204
disagre@@ 4203
ckey 4201
exchanges 4200
regret 4200
isa@@ 4199
univer@@ 4199
spor@@ 4198
feature 4198
gian 4197
eze 4196
emi@@ 4196
psy@@ 4195
pink 4195
tod@@ 4194
searching 4194
ji 4193
citing 4192
distributed 4192
programs 4191
good-bye 4191
shield 4190
evolu@@ 4190
servi@@ 4189
establish@@ 4188
recall 4188
inger 4187
grandfather 4187
flexibility 4185
achievement 4185
self 4184
organisms 4184
hook 4183
madam 4183
backup 4182
behavior 4181
olive 4180
troops 4179
lock@@ 4178
lex 4178
ez 4178
kins 4176
feed@@ 4175
tina 4174
gallery 4174
cylin@@ 4174
anno@@ 4171
regu@@ 4170
desirable 4170
discussions 4169
pol 4169
jan 4167
geographi@@ 4166
geon 4165
ignore 4165
kla@@ 4165
tra 4164
wy@@ 4162
pardon 4162
“you 4162
crack 4161
creatures 4161
autonom@@ 4161
rhy@@ 4161
kable 4160
dish 4159
systemic 4158
ising 4157
freight 4157
shrugged 4154
genius 4154
southern 4152
tourism 4150
sly 4149
alice 4148
breakdown 4148
eurostat 4147
eter@@ 4147
tally 4146
claire 4143
detection 4141
ums 4140
tality 4139
pdf 4139
devo@@ 4138
notari@@ 4138
it-@@ 4138
owners 4136
module 4136
carl 4135
beth 4135
instant 4134
parliamen@@ 4133
tori@@ 4132
consci@@ 4131
pus 4130
austr@@ 4129
desperate 4128
zin@@ 4125
won@@ 4123
seal 4123
traffi@@ 4123
template 4122
ency 4122
contin@@ 4122
aft 4122
credit@@ 4121
actor 4120
woo@@ 4118
arts 4118
moderni@@ 4115
liv@@ 4114
country@@ 4114
austri@@ 4113
out. 4112
telecommunications 4111
ulti@@ 4109
matt 4108
jerry 4105
radio@@ 4104
vor 4100
ody 4100
amoun@@ 4096
stat@@ 4095
format@@ 4092
cid 4091
commit 4091
strip 4091
retri@@ 4090
ficiency 4088
depri@@ 4087
sme 4086
even@@ 4085
extract 4085
ae 4084
mune 4084
determin@@ 4083
impe@@ 4083
pow@@ 4081
oro@@ 4079
ert 4079
mouse 4079
j. 4079
chase 4074
alumini@@ 4074
dex@@ 4070
ris@@ 4069
h-@@ 4069
ding@@ 4069
rich@@ 4069
privileg@@ 4069
califor@@ 4068
mmm 4066
near@@ 4065
lap 4064
lac@@ 4063
levi@@ 4061
oper@@ 4060
mole@@ 4059
zan@@ 4058
cats 4054
pron@@ 4051
sper@@ 4050
ander 4050
axis 4050
ante 4046
chloride 4045
cyto@@ 4045
u.s. 4042
patent 4041
awa@@ 4039
need@@ 4037
-1 4037
stal 4037
afghanistan 4037
ram 4037
cha 4035
victory 4035
indicat@@ 4033
fini@@ 4032
bos@@ 4028
eviden@@ 4027
gon 4027
nitro@@ 4025
lom@@ 4024
ial 4023
ssion@@ 4022
arbit@@ 4022
ska 4021
tate 4020
shopping 4016
ae@@ 4015
alit@@ 4014
tress 4013
consoli@@ 4009
eva 4007
ipa 4007
brand 4005
flor@@ 4005
fr 4003
dow@@ 4001
ppe@@ 4000
fbi 3999
power@@ 3997
atri@@ 3997
• 3997
influen@@ 3996
specially 3994
frank@@ 3993
zz 3991
tat@@ 3988
amon@@ 3987
shh 3987
syndro@@ 3987
rick 3986
ila@@ 3984
prises 3981
wto 3980
europol 3980
wa 3980
ο@@ 3979
bour@@ 3978
resu@@ 3977
trans-@@ 3977
make@@ 3976
slow@@ 3976
dispu@@ 3974
penny 3974
aspe@@ 3972
larry 3972
smu@@ 3972
chicago 3972
voi@@ 3970
adju@@ 3969
al/@@ 3968
amin@@ 3967
colo@@ 3966
sh-@@ 3965
temple 3964
wind@@ 3964
thing@@ 3962
mar 3961
empha@@ 3961
apple 3960
sean 3959
igno@@ 3955
oven 3955
dela@@ 3953
sie 3953
mers 3951
kg/@@ 3951
aron 3947
at. 3946
mare 3944
buf@@ 3943
foods 3943
lily 3942
nesses 3940
ket 3940
rie 3940
acu@@ 3938
subsidiarity 3935
sue 3931
leon@@ 3931
bro 3928
bir@@ 3927
gency 3926
junior 3925
how@@ 3923
reimbur@@ 3919
ority 3917
regre@@ 3916
‘ 3913
directorate-general 3910
cran@@ 3910
sop@@ 3909
cin 3908
eved 3904
ler@@ 3903
ve. 3901
bin 3901
vom@@ 3899
matur@@ 3898
nal@@ 3898
cz 3897
-2-@@ 3895
jeff 3895
kelly 3894
grou@@ 3893
bever@@ 3891
jordan 3890
dest@@ 3888
satis@@ 3886
shipping 3884
was@@ 3883
get@@ 3882
instin@@ 3879
consider@@ 3879
recy@@ 3878
yan@@ 3877
navy 3877
seas@@ 3877
constan@@ 3877
lisa 3876
chuck@@ 3873
rs 3869
pollu@@ 3869
mir@@ 3869
lane 3866
leader@@ 3866
mone@@ 3865
top@@ 3864
papa 3863
chop@@ 3861
alig@@ 3860
ety 3860
humanit@@ 3856
question@@ 3855
perfor@@ 3855
rho@@ 3851
registra@@ 3849
metric 3844
mode@@ 3842
fib@@ 3842
shine 3841
phan@@ 3839
inhal@@ 3834
xml 3832
rat@@ 3832
dialog 3831
crimin@@ 3825
cp 3824
sandwi@@ 3824
nom@@ 3822
signifi@@ 3821
gger 3820
dat@@ 3820
mun@@ 3820
ric 3820
c_201@@ 3818
dag@@ 3818
mm-hmm 3817
cz@@ 3817
mom@@ 3816
enor@@ 3815
aids 3813
lob@@ 3813
dist@@ 3811
ature 3806
appropri@@ 3805
enab@@ 3802
pp 3802
*.@@ 3802
cree@@ 3800
en. 3798
tioned 3795
jackson 3795
bum 3795
mination 3794
cs@@ 3793
robin 3790
organiz@@ 3789
stock@@ 3788
email 3784
vil@@ 3783
slov@@ 3782
studio 3781
kyle 3778
teach@@ 3777
chri@@ 3777
christian 3777
pro 3775
von 3774
bili@@ 3771
shir@@ 3770
ch-@@ 3768
equi@@ 3765
maria 3765
aman@@ 3765
morgan 3764
test@@ 3764
chin 3762
ign 3760
memor@@ 3760
p/@@ 3759
cam@@ 3757
pau@@ 3756
mono@@ 3754
pm 3754
usa 3752
opar@@ 3752
jessica 3747
vations 3747
diabetes 3745
iv@@ 3745
trend 3745
aim@@ 3743
sexy 3743
hyperten@@ 3742
quan@@ 3738
lah 3737
dens 3737
sili@@ 3736
rebe@@ 3736
indepen@@ 3735
lay@@ 3735
cloud 3734
silk 3734
jones 3733
joey 3733
ila 3732
ñ@@ 3732
acce@@ 3730
dame 3729
expre@@ 3729
>> 3729
ggy 3729
selves 3723
dden 3722
lf 3721
dem 3720
curren@@ 3718
ima@@ 3718
scen@@ 3718
dic 3718
cow@@ 3717
log@@ 3716
nel 3715
anim@@ 3714
kli@@ 3714
vice 3714
cv@@ 3710
prescri@@ 3709
tribu@@ 3707
umb@@ 3707
lia@@ 3706
ery@@ 3704
auto@@ 3704
tsi 3700
talent 3699
ior 3695
skin@@ 3694
abu@@ 3694
kilome@@ 3689
robot 3688
instan@@ 3687
angu@@ 3685
wer@@ 3681
tab@@ 3681
ame 3678
try@@ 3676
europa 3675
lins 3669
christ@@ 3669
tag 3669
ach 3668
tolerance 3666
sco 3659
phil@@ 3657
random@@ 3657
oth@@ 3656
kor@@ 3655
geri@@ 3654
spa 3654
tail@@ 3654
inst@@ 3653
· 3648
victor 3646
sper 3646
mel 3641
citizen@@ 3640
way@@ 3640
bled 3639
develo@@ 3639
gel 3639
perman@@ 3638
nest 3635
grun@@ 3633
ino 3632
belgi@@ 3631
vod@@ 3631
pit 3629
ft@@ 3627
temper@@ 3625
sophi@@ 3625
ignor@@ 3623
clim@@ 3620
dividen@@ 3619
muta@@ 3616
rin 3616
say@@ 3615
program@@ 3613
interval@@ 3613
ire 3611
hac@@ 3611
patrick 3610
ind 3609
shi 3608
vict@@ 3607
fusion 3605
mos 3605
excel@@ 3604
rab@@ 3601
tum 3594
rot 3594
accor@@ 3591
ace 3590
bat 3589
more@@ 3589
ases 3586
sher@@ 3585
topi@@ 3584
pt@@ 3582
emma 3581
_ 3581
equival@@ 3579
scot@@ 3578
y/@@ 3577
dits 3576
benef@@ 3574
advanta@@ 3572
olympi@@ 3569
inva@@ 3567
copyright 3563
í@@ 3563
xi 3560
ram@@ 3555
fanta@@ 3554
dale 3554
repli@@ 3551
baby@@ 3549
ratifi@@ 3548
marsh@@ 3545
bron@@ 3540
cca 3539
dded 3539
jury 3538
minus 3538
cis 3536
rable 3535
alfa 3534
chick@@ 3533
interval 3533
goo@@ 3528
pace 3526
shoo@@ 3526
pc@@ 3525
xy 3523
princi@@ 3523
index@@ 3523
dur@@ 3522
adri@@ 3519
dl 3519
hills 3516
rami@@ 3516
geni@@ 3512
o.@@ 3509
emp@@ 3509
imperi@@ 3507
kri@@ 3506
ridge 3506
pali@@ 3502
hong 3501
sks 3501
nut 3500
syl@@ 3500
fascin@@ 3498
sten 3497
atomi@@ 3495
howard 3493
olanzap@@ 3491
dv@@ 3491
bl 3490
manipu@@ 3489
structu@@ 3488
navi@@ 3484
competi@@ 3482
v. 3482
secur@@ 3480
ml@@ 3479
villa@@ 3478
sect@@ 3476
curi@@ 3475
done@@ 3475
box@@ 3473
sations 3471
ce/@@ 3471
portfolio 3469
oper 3468
parame@@ 3468
elizabeth 3466
meri@@ 3465
til@@ 3458
e/@@ 3457
memorandum 3456
mac 3452
@@ 3452
bau@@ 3450
targe@@ 3447
dum 3447
pick@@ 3445
gene 3443
kle 3442
uli@@ 3441
lucy 3439
pi 3439
webcam 3438
year@@ 3437
west@@ 3436
strength@@ 3435
abdu@@ 3434
coated 3433
haw@@ 3432
sally 3431
sse 3431
gather@@ 3430
cely 3430
rati@@ 3429
eth 3428
kong 3428
vietna@@ 3427
vine 3426
bab@@ 3424
recor@@ 3423
kid@@ 3416
ficien@@ 3415
symb@@ 3414
dai@@ 3413
ib@@ 3413
stand@@ 3411
erci@@ 3410
tac 3408
bastar@@ 3406
amen 3406
flan@@ 3405
skir@@ 3404
berry 3403
room@@ 3398
anci@@ 3396
ati@@ 3394
approxi@@ 3394
oring 3392
laugh@@ 3389
fili@@ 3389
liti@@ 3387
ibm 3383
gary 3383
tech 3381
<@@ 3381
bren@@ 3381
syner@@ 3380
where@@ 3377
eld 3374
warran@@ 3373
audiovi@@ 3372
.europa.eu 3371
hank 3370
ross 3369
transm@@ 3365
mac@@ 3364
esa 3363
esti@@ 3361
tile 3361
blue@@ 3359
surpri@@ 3356
brid@@ 3351
pear@@ 3348
jet 3342
marty 3338
cates 3335
tis@@ 3334
sley 3333
steph@@ 3332
nathan 3329
labor@@ 3329
camp@@ 3328
ile 3328
stance 3327
comp/m.@@ 3322
desk@@ 3321
cium 3320
statu@@ 3318
cc 3316
zy@@ 3315
sara 3312
soun@@ 3311
alleg@@ 3308
lis@@ 3306
fortun@@ 3304
peop@@ 3303
sic 3303
dos 3299
smi@@ 3298
posing 3298
levy 3294
sche 3292
pizza 3289
chmp 3288
cust@@ 3288
custom@@ 3274
ón 3274
info 3274
bed@@ 3272
pan 3268
hex@@ 3268
mea@@ 3267
neutro@@ 3261
ala 3261
arly 3254
sat@@ 3254
neutr@@ 3252
ø@@ 3252
tries 3252
ch. 3252
ralph 3252
inging 3250
tas 3249
n+@@ 3248
poe@@ 3248
ee 3248
jenny 3248
zole 3244
donna 3243
rus 3242
prise 3241
ras 3240
esma 3236
mati@@ 3234
poin@@ 3234
ola@@ 3233
vent 3233
vitro 3230
ever@@ 3230
pc 3229
arm@@ 3228
advo@@ 3224
solu@@ 3222
maxi@@ 3221
jacob 3220
designa@@ 3218
ira 3217
pling 3217
vet 3217
inhibit@@ 3215
rhe@@ 3215
sumption 3214
hoc 3209
m2 3208
particip@@ 3207
destro@@ 3207
vy@@ 3202
sole@@ 3199
marshall 3199
politi@@ 3198
chi 3197
dod@@ 3194
ai 3192
hibi@@ 3191
chat 3190
centr@@ 3187
kur@@ 3183
bioci@@ 3179
ut 3176
ola 3175
mab 3173
t‑@@ 3170
busin@@ 3169
mm-@@ 3168
ole@@ 3166
recipi@@ 3162
igh@@ 3161
versus 3160
spu@@ 3158
robo@@ 3157
conci@@ 3156
sb@@ 3156
fou@@ 3153
influ@@ 3151
**@@ 3150
ily 3150
anth@@ 3146
l_200@@ 3144
lei@@ 3139
vily 3138
inclu@@ 3137
stances 3136
gb 3134
***@@ 3131
kr@@ 3130
r.@@ 3130
auc 3130
tral 3128
defi@@ 3127
andrew 3127
jere@@ 3123
pale@@ 3121
anony@@ 3120
ost 3119
came@@ 3119
ó@@ 3117
refer@@ 3116
helen 3116
ener@@ 3114
pass@@ 3112
hei@@ 3111
imper@@ 3110
questi@@ 3107
sg@@ 3105
fly@@ 3105
braz@@ 3104
oxi@@ 3103
cke@@ 3101
tled 3101
elena 3100
transmit@@ 3094
rob 3093
materi@@ 3092
tit@@ 3091
mt 3090
jay 3086
ado 3085
× 3082
johnson 3080
administ@@ 3076
vention 3076
html 3076
mitting 3076
trau@@ 3074
anie 3074
tim 3071
hr@@ 3070
sensi@@ 3069
bp 3067
hybri@@ 3063
bot@@ 3062
andre@@ 3062
subsi@@ 3062
had@@ 3059
respira@@ 3059
linda 3058
mam@@ 3057
oliver 3055
kro@@ 3051
dosa@@ 3049
typi@@ 3049
eradi@@ 3048
v.@@ 3048
μ@@ 3047
suppor@@ 3046
moti@@ 3043
j.@@ 3042
sto 3040
ential 3035
fif@@ 3030
b/@@ 3024
accessi@@ 3023
agri@@ 3021
ece 3019
magne@@ 3019
abby 3018
epoe@@ 3017
cob@@ 3016
sero@@ 3015
roy@@ 3010
sche@@ 3005
ros 3004
sep@@ 3004
ose 3002
nel@@ 3002
dischar@@ 3001
authenti@@ 2999
pod@@ 2999
stur@@ 2998
pic 2997
guide@@ 2995
sno@@ 2995
chat@@ 2994
stence 2994
duncan 2992
hot@@ 2991
minu@@ 2990
dov@@ 2990
xx@@ 2986
htm 2985
taxi 2984
dece@@ 2983
lev@@ 2983
aver@@ 2978
lum 2976
marie 2975
exclu@@ 2975
ö 2974
commer@@ 2971
reg 2970
kb 2969
homo@@ 2968
jar@@ 2965
cad@@ 2962
sanit@@ 2961
ong 2958
zie 2958
en-@@ 2958
phar@@ 2957
depos@@ 2955
par 2955
bella 2954
laborat@@ 2952
declar@@ 2950
ghtly 2946
eng@@ 2946
chor@@ 2946
pharmaco@@ 2945
a2 2942
diag@@ 2942
ral@@ 2938
ara 2935
past@@ 2933
pneu@@ 2930
junction 2929
bra 2924
fil 2922
guine@@ 2922
point@@ 2921
ata 2918
hypogly@@ 2916
flori@@ 2914
spite 2913
nan 2913
cele@@ 2912
actu@@ 2912
à@@ 2911
rei@@ 2907
remain@@ 2902
vic 2901
got@@ 2901
gs@@ 2899
elle 2898
ques 2897
es/@@ 2896
su 2894
elect@@ 2891
explan@@ 2890
ylor 2889
shan@@ 2889
sement 2889
belon@@ 2887
opo@@ 2884
jackie 2883
propor@@ 2882
pv@@ 2882
r-@@ 2878
gir@@ 2877
propa@@ 2876
lyn 2876
lana 2875
tu 2874
suspen@@ 2874
corpora@@ 2869
momen@@ 2868
fort 2866
mexi@@ 2866
elo@@ 2865
ade@@ 2864
dity 2863
festi@@ 2859
youn@@ 2857
arity 2856
fr@@ 2851
oth 2848
karen 2845
barry 2844
roland 2842
later@@ 2830
invest@@ 2829
lad 2829
hl 2828
spla@@ 2828
acqu@@ 2828
ander@@ 2826
drizz@@ 2824
reti@@ 2823
regist@@ 2820
offi@@ 2818
frey 2818
ela@@ 2816
thresh@@ 2816
comfor@@ 2815
sively 2814
lux@@ 2813
ero@@ 2813
vero@@ 2811
deut@@ 2810
jor@@ 2810
randy 2810
bai@@ 2809
sol 2808
reas@@ 2807
ava@@ 2807
id@@ 2805
chen 2805
noon 2804
fail@@ 2803
confu@@ 2802
vou@@ 2797
tv@@ 2795
ama 2793
ta-@@ 2793
jin@@ 2792
kov@@ 2792
hepati@@ 2792
lou 2791
nicole 2790
avenue 2790
embry@@ 2789
dominan@@ 2787
fu 2784
vampi@@ 2784
ods 2783
domini@@ 2783
xia 2782
function@@ 2781
feli@@ 2781
ç@@ 2780
ms@@ 2777
sod@@ 2776
rail@@ 2775
monsieur 2774
presi@@ 2773
muno@@ 2773
bankru@@ 2771
tuni@@ 2771
ela 2766
rod 2766
whit@@ 2762
solven@@ 2762
-general 2754
angela 2752
hm 2752
deta@@ 2751
rememb@@ 2750
toni@@ 2750
ros@@ 2747
compen@@ 2746
an-@@ 2745
simil@@ 2745
jean-@@ 2744
ctr@@ 2744
lt@@ 2744
rid@@ 2743
nell 2741
aler@@ 2739
wayne 2738
partment 2736
natu@@ 2733
sloven@@ 2731
nifi@@ 2726
hygi@@ 2724
suspe@@ 2723
decentr@@ 2720
docetax@@ 2719
hz 2718
ogen@@ 2716
desper@@ 2716
maggie 2715
applica@@ 2714
pole 2711
terry 2711
good-@@ 2707
gat@@ 2706
impul@@ 2704
rober@@ 2702
dell 2701
idio@@ 2700
remov@@ 2698
rus@@ 2697
chur@@ 2696
neg@@ 2695
ich@@ 2695
dary 2694
proli@@ 2694
hier@@ 2694
cp@@ 2692
gabri@@ 2690
tero@@ 2688
mg/ml 2687
cpc 2685
tam@@ 2684
liqu@@ 2683
jas@@ 2679
eli 2678
cultu@@ 2677
hydrochlorothiazi@@ 2676
ok. 2673
gray@@ 2670
bis 2665
ssor 2665
plate@@ 2665
terrori@@ 2660
yel@@ 2660
molly 2659
pas@@ 2658
cam 2653
togra@@ 2652
ann 2649
nap@@ 2646
vola@@ 2645
mara 2642
pregabal@@ 2641
bub@@ 2639
on-line 2637
josep@@ 2635
requi@@ 2635
russi@@ 2634
endo@@ 2632
tative 2632
õ 2630
lex@@ 2624
p6_ta( 2624
eh@@ 2623
method@@ 2620
hod@@ 2618
promi@@ 2618
barney 2617
ried 2614
garion 2613
answ@@ 2613
securi@@ 2613
dyna@@ 2613
hay@@ 2612
l/@@ 2611
inser@@ 2611
â@@ 2611
sparhawk 2610
vegas 2608
veter@@ 2607
ova 2607
vir 2605
depre@@ 2604
gal 2602
servation 2601
inciden@@ 2600
§ 2600
wom@@ 2598
fashi@@ 2595
imo 2594
barbar@@ 2590
kenne@@ 2588
kosov@@ 2588
nancy 2587
ku 2586
vla@@ 2586
gur@@ 2584
rot@@ 2582
gare@@ 2580
ethan@@ 2579
awar@@ 2577
agre@@ 2573
viewed 2572
particu@@ 2570
cole 2569
matthe@@ 2566
yle 2565
carol 2563
specifi@@ 2563
aven@@ 2561
chemo@@ 2558
apy 2555
adverti@@ 2553
leng@@ 2552
ree 2550
chloe 2549
hosti@@ 2547
prim@@ 2546
nai@@ 2544
stent 2543
redu@@ 2541
irbe@@ 2540
max@@ 2540
whisper@@ 2536
transi@@ 2535
ml/@@ 2533
nos 2526
pestici@@ 2518
referen@@ 2516
samu@@ 2515
product@@ 2510
interfe@@ 2509
tta 2506
ital 2506
rani@@ 2506
ne-@@ 2502
alu@@ 2502
hiv 2500
ame@@ 2498
l_201@@ 2496
≤ 2495
dick@@ 2494
gibb@@ 2494
incredi@@ 2492
stel@@ 2490
oo@@ 2489
gang@@ 2489
sv@@ 2482
mechani@@ 2480
type@@ 2478
ata@@ 2478
hy 2475
again@@ 2474
chair@@ 2473
catherine 2472
schedu@@ 2467
abilities 2466
lear@@ 2462
balan@@ 2460
c_200@@ 2460
erie 2452
buz@@ 2450
hypoten@@ 2449
veness 2448
solid@@ 2447
ritu@@ 2447
dp 2446
tren@@ 2444
bob@@ 2442
isy 2438
stom@@ 2437
sophie 2435
ry. 2435
š@@ 2434
mail@@ 2433
rors 2431
rad 2430
simu@@ 2429
gali@@ 2429
food@@ 2429
charlotte 2427
ada 2426
revol@@ 2425
ude 2424
ifrs 2421
bud 2420
xx 2417
kom@@ 2417
ometri@@ 2415
kru@@ 2414
excep@@ 2414
lem 2412
eness 2409
kore@@ 2409
vad@@ 2405
inte@@ 2405
lena 2405
rescu@@ 2404
sse@@ 2404
thly 2402
tox@@ 2400
pad 2395
v-@@ 2394
ricky 2393
oecd 2390
cest@@ 2386
fare 2385
sz@@ 2384
fren@@ 2383
................................@@ 2382
ctives 2381
ske@@ 2377
jef@@ 2377
exac@@ 2372
harri@@ 2371
abra@@ 2370
broo@@ 2370
cognos 2370
mum@@ 2368
jesse 2368
migra@@ 2367
ppe 2365
cel 2363
pilo@@ 2363
cist 2362
al. 2362
libr@@ 2361
secretari@@ 2357
stati@@ 2357
snu@@ 2351
commod@@ 2350
hud@@ 2349
inno@@ 2348
police@@ 2347
stem 2347
fig@@ 2347
pioglita@@ 2346
holly@@ 2344
ã@@ 2342
consi@@ 2338
jaspers-jeremie-jessica 2337
pel 2337
angeles 2336
de. 2335
greg@@ 2334
writ@@ 2332
lent 2331
gericht 2328
yl@@ 2321
ferti@@ 2321
ppe-de 2320
atin@@ 2319
ii.@@ 2317
jean 2317
merger@@ 2316
wash@@ 2312
riton@@ 2309
kle@@ 2307
argument2 2304
uc@@ 2302
f/@@ 2302
--- 2302
follow@@ 2300
venti@@ 2298
impro@@ 2295
yy@@ 2294
frame@@ 2293
ored 2292
nace 2292
rene 2290
lina 2288
m/@@ 2285
job@@ 2284
antagon@@ 2282
amen@@ 2282
sexu@@ 2282
url 2282
chin@@ 2281
b7-0@@ 2279
ili@@ 2277
uh@@ 2274
figu@@ 2273
eur/100 2272
/n@@ 2271
cmax 2270
representa@@ 2269
prou@@ 2268
arch@@ 2267
liz 2265
pidogre@@ 2265
polye@@ 2263
consist@@ 2263
zpo 2261
parano@@ 2261
sms 2260
>@@ 2260
¶ 2258
té@@ 2258
fü@@ 2257
ú@@ 2257
franci@@ 2257
pl 2254
hal 2253
adop@@ 2250
cht@@ 2248
martin@@ 2247
tivity 2245
chlor@@ 2245
dith 2241
gastrointestin@@ 2240
arre@@ 2240
katie 2239
table@@ 2238
not@@ 2237
hu 2236
ano@@ 2234
lé@@ 2233
port@@ 2232
asy 2230
cast@@ 2230
cyp2@@ 2227
julie 2226
case-@@ 2222
tato 2222
aa@@ 2221
luci@@ 2221
och@@ 2221
alo 2218
campa@@ 2215
cil 2214
ribavir@@ 2209
cyp3a4 2206
metro@@ 2205
nb@@ 2204
p7@@ 2203
angioten@@ 2202
placement 2201
miami 2201
kre@@ 2197
bance 2195
ope 2195
atlan@@ 2194
kilogra@@ 2191
aking 2191
panorama 2190
chal@@ 2190
lincol@@ 2189
provo@@ 2187
demi@@ 2186
cept 2186
iu/@@ 2181
label@@ 2177
&nbsp@@ 2176
pat 2175
dova 2175
atures 2174
elli@@ 2171
kim@@ 2171
agen@@ 2170
eur/@@ 2168
ora 2168
perfe@@ 2167
inhibi@@ 2163
chole@@ 2163
icel@@ 2163
nant 2161
dily 2161
tropi@@ 2160
happen@@ 2158
embar@@ 2158
lean@@ 2156
kov 2154
mu 2152
baili@@ 2152
bene@@ 2151
mmol/l 2151
methyl@@ 2150
rey@@ 2149
proble@@ 2147
favou@@ 2138
excu@@ 2135
pod 2131
oce@@ 2130
zom@@ 2126
dwi@@ 2126
spp. 2126
vance 2124
velo@@ 2124
dad@@ 2124
competition/@@ 2123
eur-@@ 2122
clea@@ 2121
verts/ale 2121
ony@@ 2121
horri@@ 2120
quick@@ 2116
eb 2116
beau@@ 2116
astro@@ 2114
“ 2114
thom@@ 2114
asa 2112
iii.@@ 2110
itali@@ 2110
marri@@ 2108
strop@@ 2106
spira@@ 2103
dep@@ 2103
~@@ 2103
zel 2100
idi@@ 2100
big@@ 2097
co. 2096
statisti@@ 2095
third-@@ 2093
addres@@ 2092
cals 2092
teva 2091
nik@@ 2090
tech@@ 2090
industri@@ 2084
lep@@ 2083
rome@@ 2083
seme@@ 2077
innov@@ 2073
pedi@@ 2069
bravo 2065
uti@@ 2065
bruxel@@ 2064
pily 2062
stac@@ 2062
urugu@@ 2058
cof@@ 2055
vide@@ 2054
chloro@@ 2054
antibio@@ 2052
ima 2052
auton@@ 2051
certain@@ 2050
ty. 2045
abov@@ 2042
tro 2040
parlia@@ 2040
region@@ 2040
paren@@ 2036
je 2034
exi@@ 2033
informa@@ 2031
pane 2028
inv@@ 2028
dé@@ 2025
unemplo@@ 2025
scenari@@ 2024
jed@@ 2023
brad@@ 2023
preg@@ 2022
oto@@ 2019
tim@@ 2017
alde 2017
sire 2013
vu@@ 2012
ode@@ 2009
¡ 2008
epilep@@ 2007
differenti@@ 2005
prost@@ 1999
tol@@ 1998
iu 1997
methy@@ 1987
confli@@ 1979
norm@@ 1979
vie 1978
enced 1978
weir@@ 1976
guarante@@ 1975
à 1974
brus@@ 1974
gl 1973
republi@@ 1972
ov 1971
ning@@ 1970
absur@@ 1970
discu@@ 1969
\ 1968
synchroni@@ 1968
pn@@ 1964
cover@@ 1964
ctures 1962
relea@@ 1960
asy@@ 1956
dice 1956
propos@@ 1955
hone 1951
ctional 1947
amp@@ 1946
tam 1945
mete@@ 1944
compre@@ 1944
prohibi@@ 1941
derly 1941
cine 1940
pero@@ 1938
dise@@ 1936
ju 1935
bot 1934
auto 1933
_ta( 1933
asse@@ 1933
ł@@ 1932
feder@@ 1930
eu/@@ 1928
privi@@ 1922
u.@@ 1921
deva@@ 1918
environ@@ 1917
lid 1917
defini@@ 1917
adequ@@ 1916
dations 1915
lid@@ 1915
maje@@ 1903
rance 1903
atric 1899
nut@@ 1897
kles 1897
diabe@@ 1896
α@@ 1893
willia@@ 1888
energi@@ 1888
hed@@ 1887
µ@@ 1886
titu@@ 1886
fertili@@ 1885
ann@@ 1884
decla@@ 1881
ound 1879
≥@@ 1878
ud 1878
sex@@ 1876
ru 1872
vege@@ 1870
theless 1863
til 1863
irregu@@ 1859
forma@@ 1856
bull@@ 1854
nou@@ 1853
aly 1853
ryan@@ 1851
chy@@ 1849
remo@@ 1848
vid@@ 1840
environment@@ 1840
ê 1839
rek 1839
oz@@ 1838
percen@@ 1837
fond 1836
pments 1836
hawk 1831
′ 1831
ô@@ 1825
dro 1818
osa@@ 1817
comprehen@@ 1816
undertak@@ 1814
© 1813
fucker 1812
stat 1811
dark@@ 1810
poten@@ 1807
ssly 1805
ingredi@@ 1805
glan@@ 1798
monit@@ 1798
ady 1797
ost@@ 1795
mot@@ 1791
ï@@ 1790
rapi@@ 1790
type-@@ 1789
ficiently 1788
attor@@ 1787
ury 1782
vat@@ 1779
opi@@ 1778
fas@@ 1777
mach@@ 1776
ret 1774
eb@@ 1773
stupi@@ 1771
girl@@ 1770
lawful 1770
posite 1768
stro 1766
ween 1765
genu@@ 1757
ves@@ 1756
ults 1755
ilo 1753
stern 1752
success@@ 1751
pon 1749
behavi@@ 1747
km/@@ 1743
hotel@@ 1742
fici@@ 1739
ez@@ 1736
prima 1732
liz@@ 1731
leu@@ 1731
lithu@@ 1730
volun@@ 1729
um-@@ 1728
.europa.eu/@@ 1727
earli@@ 1722
shoul@@ 1721
enfor@@ 1720
enger 1720
rad@@ 1719
loa@@ 1716
nin 1714
mance 1713
ridi@@ 1713
č@@ 1710
dy. 1708
rem 1707
commit@@ 1704
====@@ 1703
ovi@@ 1703
bath@@ 1702
formal@@ 1702
zin 1700
suc@@ 1700
ε@@ 1699
maj@@ 1699
vity 1699
nik 1699
ved@@ 1697
stake@@ 1690
sil 1689
grea@@ 1688
shop@@ 1681
olu@@ 1680
funda@@ 1680
compan@@ 1680
cht 1678
oba@@ 1674
ë 1673
ré@@ 1672
restaur@@ 1669
memb@@ 1667
suici@@ 1666
bry@@ 1664
pren@@ 1662
oly@@ 1662
join@@ 1661
electri@@ 1661
oi@@ 1661
christi@@ 1661
eving 1661
j-@@ 1660
eration 1659
col 1655
cant 1653
birth@@ 1651
stu 1647
fy@@ 1642
tec 1642
video@@ 1639
£ 1636
year-@@ 1635
sory 1635
yor@@ 1633
destru@@ 1632
inhi@@ 1632
mob@@ 1626
dit 1626
bulgari@@ 1624
mask@@ 1623
east@@ 1623
ask@@ 1623
telep@@ 1622
mat 1618
chment 1617
tably 1617
symptom@@ 1616
pani@@ 1615
maga@@ 1615
achie@@ 1614
repu@@ 1613
deleg@@ 1613
vements 1611
john@@ 1611
line@@ 1609
eleg@@ 1609
chop 1607
aga@@ 1606
hle@@ 1604
τ@@ 1604
categori@@ 1592
teur 1590
ctiveness 1589
tish 1585
ul 1579
decrea@@ 1577
cé@@ 1577
moder@@ 1566
questionna@@ 1564
wonder@@ 1561
hem 1557
cogni@@ 1557
europa.@@ 1557
leaf@@ 1555
á@@ 1552
augu@@ 1552
tance 1548
assho@@ 1547
zel@@ 1542
lo. 1541
ans@@ 1541
fiel@@ 1540
pie@@ 1540
mere@@ 1538
sl 1536
fortunately 1536
metri@@ 1535
zer@@ 1535
dopa@@ 1534
____@@ 1532
bari@@ 1529
accura@@ 1524
tau@@ 1524
pr 1522
zen 1515
lars 1515
level@@ 1512
tton 1511
nerv@@ 1511
envisa@@ 1510
coura@@ 1505
proportion@@ 1500
zim@@ 1500
stuffs 1497
therine 1497
ply@@ 1496
bu 1493
oni 1491
tz@@ 1491
dless 1485
priori@@ 1485
realiz@@ 1484
^@@ 1483
to. 1481
tr 1478
cess@@ 1478
pid 1473
azi@@ 1471
basi@@ 1469
offici@@ 1467
--------@@ 1467
och 1466
democra@@ 1465
intere@@ 1465
medit@@ 1464
spl@@ 1463
~~@@ 1462
jen 1461
commissi@@ 1461
quanti@@ 1457
congratu@@ 1457
cog@@ 1454
‧ 1453
jim@@ 1453
valen@@ 1450
‧@@ 1450
lib@@ 1449
ici@@ 1447
stav@@ 1447
å@@ 1447
pot@@ 1446
chel 1444
drin@@ 1443
responsi@@ 1437
kol@@ 1436
sud@@ 1434
tov@@ 1427
arance 1427
zep@@ 1426
oct@@ 1425
lery 1423
cest 1421
aka@@ 1420
beauti@@ 1418
ah. 1417
rubb@@ 1413
facili@@ 1409
nega@@ 1408
infu@@ 1407
jurisdi@@ 1406
lish 1398
posed@@ 1397
depu@@ 1396
stov@@ 1395
ourg 1393
ek@@ 1392
nit 1391
uz@@ 1387
dynami@@ 1381
hale 1381
poul@@ 1381
mas@@ 1377
lab@@ 1376
appoint@@ 1376
procu@@ 1373
nato 1372
knowled@@ 1372
zv@@ 1369
dn 1366
kde 1366
kaza@@ 1365
distri@@ 1365
xie 1363
zal@@ 1363
symp@@ 1361
mitted 1357
surve@@ 1357
a4 1356
lone@@ 1353
dob@@ 1351
suring 1350
viol@@ 1350
consum@@ 1349
profession@@ 1347
satelli@@ 1339
aru@@ 1336
civi@@ 1335
invit@@ 1333
tiva 1333
ted@@ 1332
oti@@ 1331
banka 1331
ane@@ 1328
raid 1325
sug@@ 1325
never@@ 1323
opat@@ 1321
kou@@ 1318
imate 1315
dot@@ 1313
lini@@ 1313
windo@@ 1313
texti@@ 1312
kup 1312
hust@@ 1312
achi@@ 1311
ι@@ 1310
certifi@@ 1309
settle@@ 1306
naz@@ 1296
pora@@ 1292
ρ@@ 1291
ape@@ 1291
foli@@ 1287
mpi@@ 1287
vulner@@ 1284
obe@@ 1283
afgh@@ 1282
napo@@ 1281
ukra@@ 1281
ene@@ 1281
jack@@ 1280
appendi@@ 1280
famili@@ 1279
volu@@ 1275
vr@@ 1272
sek 1269
insan@@ 1264
stard 1264
ê@@ 1264
ili 1262
frien@@ 1259
yon@@ 1259
wid@@ 1259
dump@@ 1256
té 1249
sti 1247
kry@@ 1247
tee 1246
shru@@ 1245
pharmaceu@@ 1244
parag@@ 1242
conform@@ 1241
absen@@ 1240
tem 1237
® 1232
cie 1231
streng@@ 1230
´ 1230
enforce@@ 1229
envi@@ 1228
ts/@@ 1226
nei@@ 1225
nora 1225
qualifi@@ 1225
compul@@ 1221
pom@@ 1221
ktor 1218
discrimin@@ 1216
uka@@ 1215
toge@@ 1214
sly@@ 1210
sko 1208
mee@@ 1207
mé@@ 1201
ills 1200
eru@@ 1199
bare@@ 1199
econ@@ 1196
fung@@ 1195
feren@@ 1195
micha@@ 1193
serge@@ 1190
hov@@ 1189
div@@ 1187
inste@@ 1186
fortu@@ 1186
consequ@@ 1185
dialo@@ 1184
‐@@ 1184
ht@@ 1174
willi@@ 1164
htt@@ 1163
transplan@@ 1163
oka@@ 1162
comit@@ 1159
simp@@ 1157
js@@ 1156
pu 1153
allow@@ 1149
expo@@ 1144
jessi@@ 1144
tup 1143
η@@ 1142
aty 1140
ote@@ 1130
beha@@ 1130
comp/@@ 1117
mple 1117
nen@@ 1115
yi 1110
db@@ 1109
langu@@ 1109
kine@@ 1108
guaran@@ 1108
gery 1107
zh@@ 1105
biologi@@ 1104
ν@@ 1103
ley@@ 1102
nad@@ 1101
identi@@ 1099
roz@@ 1096
stadi@@ 1096
kat 1094
gu 1093
richar@@ 1091
mil 1090
intestin@@ 1087
def@@ 1087
cris@@ 1087
froz@@ 1086
specializ@@ 1083
stev@@ 1082
etings 1081
argument@@ 1078
them@@ 1078
candi@@ 1076
eni 1075
perspe@@ 1073
remun@@ 1070
messa@@ 1068
lov 1066
vit 1064
zu 1059
profe@@ 1058
teg@@ 1055
chlori@@ 1054
standar@@ 1052
ë@@ 1050
hel 1048
stily 1048
through@@ 1047
copy@@ 1047
cka 1044
....@@ 1043
dane 1042
sv 1041
rod@@ 1041
spat@@ 1038
nat 1035
atom@@ 1032
u. 1030
gastro@@ 1030
oran@@ 1029
ble-@@ 1028
norma 1028
infar@@ 1025
pry@@ 1023
kus 1019
ech 1018
,, 1017
twel@@ 1016
oval 1013
invol@@ 1013
ó 1010
moz@@ 1008
has@@ 1007
awe@@ 1006
eti@@ 1004
α 1004
enou@@ 1002
tl 1001
­ 999
prince@@ 999
ð 996
budge@@ 995
joh@@ 992
h/@@ 990
expres@@ 989
pleas@@ 989
inform@@ 987
ticed 985
possi@@ 981
bedro@@ 980
activi@@ 978
empi@@ 974
exter@@ 972
ovan@@ 972
gluco@@ 969
tabu@@ 969
avo@@ 969
ctly 968
kt 967
syring@@ 966
psy 965
virtu@@ 961
tit 961
satur@@ 960
ww@@ 957
¿ 957
euroz@@ 956
fore 955
resul@@ 955
bral 949
aha 946
tat 946
nese 943
lh@@ 942
υ@@ 941
logra@@ 939
fering 936
ń@@ 935
sama 931
naf@@ 930
intelle@@ 929
pas 928
κ@@ 926
lah@@ 923
vement 923
fie 922
tura 920
spat 915
abili@@ 915
mto 915
interoper@@ 914
purpo@@ 913
λ@@ 913
stitu@@ 908
nu 904
lari@@ 903
ire@@ 903
precau@@ 900
spani@@ 898
angio@@ 898
ital@@ 897
natur@@ 896
studi@@ 895
quie@@ 894
configu@@ 892
δ@@ 891
........@@ 891
ský 890
hundre@@ 888
bere@@ 888
ele 888
ς 884
withdraw@@ 883
docu@@ 878
brilli@@ 876
erran@@ 874
cyp@@ 874
feel@@ 871
hou 870
ß@@ 869
veli@@ 869
sone 869
nius 868
pil 867
buch@@ 865
π@@ 864
pendi@@ 861
gé@@ 860
pis 859
harmon@@ 858
bil 857
sá@@ 856
civil@@ 854
machin@@ 850
thiazi@@ 845
von@@ 845
cu 844
ould 843
turi@@ 842
plod@@ 839
β@@ 838
ž@@ 838
ements 836
sels 835
hla@@ 835
osi@@ 834
df 830
favor@@ 830
sé@@ 828
croati@@ 827
stol@@ 826
omy@@ 825
dange@@ 822
supre@@ 819
pril 818
chem 817
mate@@ 817
kap@@ 817
ami 816
tomor@@ 814
roma@@ 812
tak 812
ridicu@@ 811
fairs 806
does@@ 805
rom@@ 804
¨ 801
♫ 800
anta@@ 799
tera 799
pons 796
scientifi@@ 793
ă@@ 790
w.@@ 789
thes 788
ï 788
scal 787
gentle@@ 782
bene 781
tily 781
celer@@ 778
nil 776
kon 775
tenant 773
dil 768
▐ 765
ight 764
ská 764
prezi@@ 762
goti@@ 760
sko@@ 760
aho@@ 760
æ@@ 759
whate@@ 756
seda@@ 755
né@@ 755
kali 755
easi@@ 752
dub@@ 752
σ@@ 748
prejudi@@ 746
lá@@ 744
ο 744
europa@@ 743
gem 742
dred 740
sheri@@ 740
chlo@@ 738
techno@@ 735
zor@@ 734
oby 733
vu 732
lead@@ 731
zine 730
♪@@ 729
kop@@ 727
aku@@ 726
latin@@ 726
beh@@ 725
nec 725
reag@@ 725
c_@@ 722
paten@@ 721
exa@@ 719
sands 718
iden@@ 718
kaz@@ 717
renew@@ 716
ﬁ 715
ern 714
recu@@ 714
obal@@ 712
nost@@ 710
î@@ 709
xt 707
«@@ 704
ceu@@ 703
usi@@ 703
tise 698
emis@@ 696
confiden@@ 695
davi@@ 695
fered 695
maxim@@ 694
ś@@ 693
paral@@ 691
● 690
− 690
georg@@ 689
................@@ 687
sla 686
assess@@ 685
xu 684
abri@@ 683
zá@@ 680
tiveness 678
kam@@ 677
chod@@ 677
info@@ 674
sma 673
vil 672
sion-@@ 671
cent@@ 671
cí@@ 669
bez@@ 668
stom 666
arab@@ 665
ture@@ 665
kal 663
› 663
europ@@ 663
previ@@ 662
donu@@ 662
chov@@ 661
..@@ 660
clare 659
brat 659
charac@@ 658
server@@ 657
vehi@@ 655
↓ 655
š 655
disci@@ 654
juni@@ 652
strategi@@ 652
trap@@ 651
kul@@ 650
neo@@ 650
horizon@@ 646
odium 646
angi@@ 644
further@@ 643
oro 642
vé@@ 640
scien@@ 639
lete 639
usu@@ 638
ę@@ 637
availa@@ 637
directorate@@ 635
ﬁ@@ 635
medicin@@ 634
fé@@ 630
cet 630
éri@@ 629
strom 628
ficient 627
þ@@ 627
„ 626
če@@ 622
tk@@ 621
а@@ 620
hro@@ 620
cion@@ 619
ª 618
cko 617
esta@@ 617
rappor@@ 616
geogra@@ 615
ā@@ 615
pé@@ 614
′@@ 613
nout 612
alimen@@ 611
larly 611
lment 610
bek 606
ò 603
zek 603
rity 602
á 602
ő@@ 601
² 600
teful 599
situ@@ 595
doz@@ 595
nic@@ 592
lice 592
lila 591
omo@@ 591
dani 591
mez@@ 590
č 590
kau@@ 589
zach@@ 588
mala 585
lich@@ 585
ean 584
lieu@@ 583
ová 580
dat 579
portfoli@@ 576
opra@@ 574
leh@@ 572
zam@@ 572
uta@@ 572
rr 568
aj@@ 559
opportuni@@ 557
dole 556
komer@@ 555
vl@@ 554
victi@@ 553
transa@@ 552
proper@@ 552
la. 550
eno 549
tí@@ 548
jak@@ 547
compati@@ 546
chu 546
nava@@ 545
tul@@ 544
minister@@ 544
pak 540
atus 536
ί@@ 536
§@@ 535
ț@@ 535
kob@@ 533
cative 532
ční 532
struct@@ 532
spou@@ 530
slun@@ 529
zd@@ 529
cyp3@@ 528
lil 528
γ@@ 528
dci 525
maz@@ 525
klo@@ 525
chal 524
pating 524
tok 522
ví@@ 521
sled@@ 519
jame@@ 518
ī@@ 518
pus@@ 517
polo@@ 517
fó@@ 515
olan@@ 514
juris@@ 514
disk@@ 514
ň@@ 512
bude@@ 512
klu@@ 512
manufactu@@ 510
islan@@ 507
://@@ 505
moh@@ 505
dace 504
concili@@ 504
prav@@ 503
tla@@ 503
energe@@ 503
motiv@@ 502
limi@@ 501
esc 500
ité 498
ą@@ 498
televi@@ 498
vá@@ 497
dome@@ 497
sve@@ 496
ite@@ 495
má@@ 494
entially 494
contr@@ 493
committe@@ 493
о@@ 493
owner@@ 491
tek 491
absolu@@ 490
mra@@ 489
artic@@ 488
chroni@@ 488
autob@@ 487
ă 487
rok 486
territori@@ 486
prior@@ 484
ono 483
mane 481
eny 479
kl 479
uch@@ 477
halo 477
dingly 477
stran 476
 476
anal@@ 476
║ 475
uru 474
engin@@ 474
tika 472
kari@@ 470
kali@@ 470
oka 470
obla@@ 469
zat@@ 469
mou 468
disse@@ 468
health@@ 467
eura@@ 467
u/@@ 467
chir@@ 462
rodi@@ 461
ková 461
integ@@ 461
wro@@ 458
@@ 458
lí@@ 458
hesion 457
poste@@ 457
án 456
kev@@ 456
--@@ 456
structuring 455
.europa.@@ 455
ob 455
º@@ 452
″ 451
hemo@@ 448
aby 447
dek 447
lr 445
appar@@ 444
moc@@ 443
degre@@ 443
adre@@ 443
fic@@ 442
jest@@ 441
brou@@ 440
½ 438
troj@@ 438
technologi@@ 438
õ@@ 437
fungu@@ 432
teh@@ 431
·@@ 431
when@@ 430
ná@@ 429
funer@@ 429
tru 429
twen@@ 427
immedi@@ 425
teli@@ 423
profil@@ 423
lé 422
digit@@ 421
wher@@ 421
kom 420
stav 419
terro@@ 417
reau 417
ã 417
tek@@ 415
simi@@ 414
dese@@ 414
stren@@ 413
е@@ 411
í 411
ė 410
aj 409
suppli@@ 408
kod@@ 407
tito 407
ška 405
samo@@ 405
ctual 405
cii 404
sra@@ 402
reque@@ 400
decision-@@ 398
zni@@ 398
mek 396
malo@@ 394
mata 394
sweethe@@ 392
 391
obvi@@ 391
kn 391
lik 390
stici@@ 390
dale@@ 390
↑ 390
xe 389
exper@@ 387
datory 386
esses 383
rá@@ 382
tele 381
leti@@ 381
interne@@ 381
exe@@ 381
hore@@ 381
plane@@ 381
zap@@ 378
υ 378
oba 377
manufactur@@ 377
sob 376
citi@@ 376
pane@@ 375
sustain@@ 374
česká 374
ø 374
nami 373
strate@@ 372
soldi@@ 372
slou@@ 372
byl 372
zla@@ 371
effor@@ 371
__@@ 371
zr@@ 371
pré@@ 370
estima@@ 369
kde@@ 369
dov 368
poli 368
tá@@ 368
yester@@ 368
oby@@ 368
ż@@ 366
p6@@ 366
kala 365
atel@@ 363
ál@@ 362
pec 360
и@@ 360
ader@@ 360
emit@@ 360
ū@@ 358
zlo@@ 358
bec 357
ü 357
larities 356
janu@@ 355
mé 354
entre@@ 353
nad 352
horiz@@ 351
& 351
sí 350
jak 349
bá@@ 348
enh@@ 348
else@@ 348
vte 346
ostat@@ 345
thur 345
ministra@@ 344
judg@@ 344
spad@@ 343
dí@@ 343
в@@ 343
sek@@ 342
ude@@ 342
milo@@ 342
р@@ 341
engers 340
tome 340
opport@@ 339
require@@ 339
meto@@ 337
ﬂ@@ 337
bod 337
schen@@ 336
hung@@ 336
oko 335
opini@@ 335
ð@@ 335
º 335
lik@@ 334
chla@@ 334
ec.europa.eu/@@ 330
afghani@@ 328
či@@ 328
fax@@ 327
efe@@ 327
implemen@@ 327
ė@@ 327
relation@@ 327
ček 327
dav@@ 327
¤ 327
sce 326
calen@@ 326
impair@@ 326
oden@@ 324
tun 324
moto@@ 322
cants 321
procedu@@ 320
jeremi@@ 319
cký 319
lat 319
tó@@ 318
priv@@ 318
· 318
otro@@ 317
tune@@ 316
rety 316
automa@@ 315
dren 314
ì@@ 314
 314
ș@@ 314
fos@@ 313
aru 313
redi@@ 312
vala 312
ÿ 312
 310
sej@@ 310
kam 310
ß 310
mol/l 310
sever 309
н@@ 309
β 309
ά@@ 309
lal 308
demon@@ 307
ä 304
kou 304
mech@@ 302
@@ 301
ή@@ 301
lese 301
alil 301
@@ 299
с@@ 296
ova@@ 296
jem 295
jó@@ 295
exam@@ 295
zt 295
ici 294
η 294
farma@@ 294
nalo@@ 293
‑ 293
vra@@ 293
regio 292
ē@@ 292
û@@ 291
jou 290
lek 290
memoran@@ 290
progra@@ 290
pment 289
raz 289
tiz@@ 287
menu@@ 286
tamin@@ 285
import@@ 284
crit@@ 284
elek@@ 284
bole@@ 283
¢ 283
™@@ 283
ύ@@ 283
mely 281
ω@@ 281
/l 281
έ@@ 281
zou@@ 281
crete 280
lak@@ 280
λ 280
ş@@ 279
ej 277
tep@@ 277
tere 277
spal@@ 276
kata@@ 276
ous@@ 275
nether@@ 275
vise@@ 274
seh@@ 274
rake@@ 274
taj@@ 274
intro@@ 273
ć 273
mene 272
histor@@ 272
confidenti@@ 272
smy@@ 271
―@@ 269
sacri@@ 269
ské 269
ų 268
obo@@ 268
rova 268
raj@@ 268
ramen@@ 267
pediatri@@ 267
argumen@@ 266
pasi@@ 266
hama 266
feu 266
trum 265
doll@@ 265
llant 265
† 264
l_@@ 263
piz@@ 262
pole@@ 262
ři@@ 261
recit@@ 261
mno@@ 260
zah@@ 258
sem 258
dou 258
mist@@ 257
ţ@@ 257
≤@@ 257
rou 257
gratu@@ 256
mbh 255
zl 255
@@ 253
л@@ 253
ši@@ 253
kol 253
vina 253
atives 253
aci 252
gements 251
polici@@ 251
ří 250
slav@@ 250
bí@@ 250
vz@@ 250
paragrap@@ 249
zem@@ 249
nez@@ 248
kredit@@ 248
asi 247
such@@ 247
energie 247
mír 247
studen@@ 247
toto 246
----@@ 246
angli@@ 246
centrum 246
preferen@@ 245
kola 245
↔ 245
cla 244
ár@@ 243
stí 243
republika 242
å 242
dala 242
kama 241
vka 240
cti 240
paedi@@ 240
hez@@ 239
stori@@ 237
tially 237
hru@@ 237
jil 236
ł 236
δ 235
intel@@ 234
ovy 233
kmen@@ 232
mainten@@ 232
transpar@@ 231
rizi@@ 230
//@@ 229
nek 229
jit 228
laborato@@ 228
slovak@@ 227
χ@@ 226
ý@@ 226
emi 226
e-mail@@ 226
tko 225
tna@@ 224
ej@@ 224
mí@@ 224
chl@@ 224
effic@@ 223
šu@@ 223
šk@@ 222
ý 222
oec@@ 222
hra 221
bla 220
ν 220
stil 220
prelimin@@ 219
@@ 219
mobil@@ 219
к@@ 219
drob@@ 219
psa 217
vá 216
¶@@ 216
tva 215
tane@@ 214
― 214
dost 214
sami 213
θ@@ 212
nem 212
т@@ 212
rez@@ 211
anu 211
sudden@@ 210
ι 209
tobac@@ 209
jako@@ 209
še@@ 209
amend@@ 207
sou 206
zna@@ 206
rost@@ 205
� 205
dé 204
syn 202
employe@@ 202
uj@@ 202
vila 202
tila 200
stupo@@ 199
─ 198
čin@@ 198
produk@@ 198
ceny 197
¯@@ 197
kv@@ 197
sí@@ 196
mem 196
autor@@ 196
ní 196
perhap@@ 195
bem 195
reim@@ 194
categ@@ 193
asle@@ 193
ovo 193
^ 193
nim 192
pio@@ 191
•@@ 191
pá@@ 191
otra@@ 190
cá@@ 190
zelen@@ 190
posta@@ 190
ò@@ 189
isl@@ 189
φ@@ 188
án@@ 188
zas 187
nepo@@ 187
zda 187
telli@@ 187
poro@@ 186
mena 185
½@@ 185
ό@@ 185
né 185
há@@ 184
zdroj 184
mobil 184
ovi 184
diffi@@ 183
ká@@ 183
rová 183
kone@@ 183
difficul@@ 183
bled@@ 182
kó@@ 182
že@@ 182
​@@ 181
forma 180
ší@@ 180
šek 180
stvo 179
ná 179
dá@@ 178
zma@@ 178
luxemb@@ 178
populace 177
benefici@@ 176
lec 176
hne 176
tou 176
ě@@ 175
hla 175
dory 174
fortuna@@ 174
ľ 174
odh@@ 174
pover@@ 174
naps@@ 174
portugu@@ 173
tys 172
hol 172
ži@@ 172
internet@@ 172
mla@@ 172
nove@@ 171
ﬀ 171
uru@@ 170
faj@@ 170
curred 170
itu 170
dve@@ 169
mys@@ 169
he/@@ 169
sili 169
mimo@@ 168
čka 168
ú 168
atra@@ 168
vod 167
naj@@ 167
@@ 167
tma@@ 167
kapit@@ 167
voj@@ 167
zem 166
lisa@@ 166
™ 166
ute@@ 165
pou 165
neh@@ 165
kot@@ 165
áš 165
mily 164
edings 164
increa@@ 163
‚ 163
bou 163
tlu@@ 163
chou 162
above@@ 162
hydrochloro@@ 161
fon 161
posa@@ 161
moc 161
vants 161
tré@@ 161
české 160
fisk@@ 159
ktor@@ 159
ç 159
rovna 159
_ta@@ 159
jem@@ 158
xel@@ 158
mami 158
krit@@ 158
ké@@ 158
akti@@ 157
vek 157
zev 157
washing@@ 157
bankrupt@@ 157
pistol@@ 157
koe@@ 156
zav@@ 156
kup@@ 156
rych@@ 156
rism 156
naru@@ 156
accompan@@ 155
œ@@ 154
inov@@ 154
nemo@@ 154
zne@@ 154
relevan@@ 153
γ 153
σ 151
jel 151
а 151
adu 151
vli@@ 151
grafi@@ 150
svo@@ 150
ā 150
ε 150
izo@@ 150
¦ 149
rozen@@ 149
komi@@ 148
¾ 148
rej@@ 148
bys 148
slo 147
beyon@@ 147
film-@@ 146
ř@@ 146
osu@@ 146
zab@@ 145
cesta 145
skal@@ 145
soud 145
ґ@@ 144
rada 144
dove@@ 144
spod@@ 144
dolar@@ 143
roku 143
linie 143
ű 143
prepar@@ 143
vou 142
==@@ 142
chá@@ 141
mana 141
ovo@@ 141
 141
schop@@ 140
haj@@ 139
ní@@ 139
zlo 139
³ 139
fak@@ 138
cké 138
ώ@@ 138
poz@@ 138
babi@@ 137
shod@@ 137
cká 137
nce 137
stou@@ 137
ober 137
ně 136
dla 136
zeň 135
þ 135
tka 135
majest@@ 135
vej 134
oblast 134
vedly 134
obra@@ 133
tence 133
rky 133
► 133
withstanding 133
tami 132
jimi 132
hev 132
proti@@ 132
eliza@@ 131
teori@@ 131
howe@@ 131
м@@ 131
pomo@@ 131
schar@@ 131
ka. 130
inese 130
vole 130
skr@@ 129
ák 129
poh@@ 129
tej@@ 129
datum 129
sval@@ 128
psala 128
τ 128
oru 127
portu@@ 127
oriz@@ 127
.“ 126
insolven@@ 126
uji 126
■ 126
pek 126
doba 125
kami 125
territ@@ 125
nová 124
riba@@ 124
priorit@@ 124
viz 123
æ 123
chica@@ 123
è 123
krat@@ 123
ministerstvo 123
ì 123
popla@@ 123
у@@ 122
divo@@ 122
škoda 121
če 121
ocen@@ 121
monet@@ 121
technologie 120
chara@@ 120
čov@@ 120
francie 119
konkur@@ 119
proced@@ 119
lok@@ 118
caj@@ 118
pido@@ 118
ﬂ 118
ť@@ 118
thern 118
rezi@@ 117
stupe@@ 117
therapeu@@ 117
�@@ 116
maso 116
ky. 116
abal@@ 115
já@@ 115
syst@@ 115
ný 115
nover 115
sva@@ 114
д@@ 114
nost 114
radu 114
ľ@@ 113
ś 113
hle 113
klep@@ 113
sud 113
kost@@ 113
daly 112
ξ@@ 111
pem 111
ņ@@ 111
stane@@ 110
cena 110
lech 110
ń 110
nebo@@ 109
osm@@ 109
ník 109
parla@@ 109
ő 108
lili 108
&#@@ 108
republiky 108
děj@@ 108
pov@@ 107
√ 107
japan@@ 107
tře@@ 107
kandi@@ 106
smus 106
sona 106
tanu 106
panor@@ 106
ч 106
prod@@ 106
↑@@ 106
pivo 105
â 105
¼ 105
б@@ 105
sev@@ 105
charlo@@ 105
cem 104
nej 104
×@@ 104
staro@@ 103
bouch@@ 102
subven@@ 101
svobod@@ 100
ocho@@ 100
ž 99
eko@@ 99
jez@@ 99
ohe@@ 98
kla 98
ô 98
bramb@@ 98
 98
kaz 98
г@@ 98
úva@@ 97
nily 97
soud@@ 97
smr@@ 97
→@@ 97
mech 97
opak 96
esen@@ 96
testy 96
rement 96
indie 95
nevin@@ 95
regar@@ 95
http@@ 95
ș 95
rado@@ 95
rty 95
hlou@@ 95
ho. 94
kva@@ 94
pana 94
·@@ 94
vole@@ 94
→ 94
‡ 94
malo 93
□ 93
ř 93
pust@@ 93
dlen@@ 92
leno 92
ù 92
rovol@@ 92
preli@@ 92
ostro@@ 92
vost 92
kem 92
stane 92
о 91
noc 91
ű@@ 91
posu@@ 91
trest@@ 91
hala 90
pode@@ 90
nomencla@@ 90
maji@@ 90
traf@@ 89
dlu@@ 89
¨@@ 89
zava@@ 89
bohu@@ 89
novi 88
kte@@ 88
óz@@ 88
médi@@ 88
prakti@@ 88
adjust@@ 87
kraj@@ 87
elektro@@ 86
¥ 86
➝ 86
mediterran@@ 86
febru@@ 86
tiv 86
lilo 85
pach@@ 85
ně@@ 85
dali 85
ký 85
pí@@ 85
čí@@ 85
ź@@ 85
palu@@ 84
apeu@@ 84
uprav@@ 84
ﬀ@@ 84
admissi@@ 84
pravi@@ 84
dok@@ 84
tová 83
μ 83
rozsa@@ 83
magine 83
kamen@@ 83
exposu@@ 83
dvo@@ 83
septe@@ 82
stali 82
ingu 82
ρ 82
zou 82
atel 81
nere@@ 81
klon@@ 81
vak@@ 81
kosti 81
projek@@ 80
ή 80
eru 80
lodi 80
zec 79
kode@@ 79
¹ 79
mbur@@ 79
hod 78
osm 78
:@@ 78
ﬃ 78
zet 78
aktu@@ 78
jdi 78
vez@@ 77
še 77
nedo@@ 77
kabe@@ 77
&nb@@ 77
represen@@ 76
náro@@ 76
φ 76
engen 75
⌦ 75
lel 75
centra@@ 75
criteri@@ 75
∞ 75
ké 75
³@@ 75
inem 75
vej@@ 75
laborator@@ 74
baru 74
georgi 74
rka 74
dni 73
opu@@ 73
⌫ 73
itou 73
koli@@ 73
dne 72
zky 72
θ 72
ģ@@ 72
ğ@@ 72
 72
ą 72
ć@@ 72
zena 72
ω 72
jo. 72
nou 72
mě@@ 71
kto@@ 71
špi@@ 71
nato@@ 71
vyso@@ 71
rady 71
řá@@ 71
doce@@ 71
mó@@ 71
skupin 71
zra@@ 70
vé 70
vý@@ 70
transparen@@ 70
 70
jat@@ 70
dokumen@@ 70
−@@ 70
klen@@ 70
й 70
☐ 70
п@@ 69
vaz@@ 69
clo 69
 68
@@ 68
úz@@ 68
kontro@@ 68
tili 68
prode@@ 68
vilo 68
ů@@ 68
❖ 68
jede@@ 68
ş 68
kovi 67
lová 67
ál 67
zmi@@ 67
ktu 67
li. 67
ryb@@ 67
nosti@@ 67
elektri@@ 67
čen@@ 66
ří@@ 66
druž@@ 66
alko@@ 66
 66
⎢ 66
zla 66
zapo@@ 66
sku 66
čky 66
ík 66
switzer@@ 65
dová 65
nky 65
hry 65
nii 65
unie 65
bře@@ 65
ča@@ 65
tich@@ 65
cs.@@ 65
ħ@@ 65
ře@@ 65
zkur@@ 65
sest@@ 65
leva 65
telefon@@ 64
stup@@ 64
stá@@ 64
neod@@ 64
в 63
masa 63
tá 63
čer@@ 63
stva 63
poch@@ 63
stín 63
svr@@ 63
ň 63
až@@ 62
cestu@@ 62
funk@@ 62
vili 62
kasa@@ 62
х@@ 62
ÿ@@ 62
з@@ 62
ů 61
slov 61
sebe@@ 61
ς@@ 61
 61
ź 61
prove@@ 61
é. 61
bej@@ 61
unemp@@ 61
glita@@ 61
zahra@@ 60
oliv@@ 60
nici 60
 60
recen@@ 60
fá@@ 60
dře@@ 60
vidi@@ 60
enemi@@ 59
káš 59
 59
tev@@ 59
restau@@ 59
у 59
↓@@ 59
-li 59
doktor 59
symbo@@ 59
banky 59
inu 59
roce 59
ı@@ 58
nka 58
imun@@ 58
že 58
portugal@@ 58
mikro@@ 58
struktur 58
ště@@ 58
pitom@@ 58
/or 58
kamar@@ 57
 57
bost 57
vě@@ 57
ility 57
 57
svol@@ 57
dě@@ 57
nasa@@ 56
@@ 56
lask@@ 56
nech@@ 56
ť 56
kula@@ 56
apli@@ 56
κ 56
kole@@ 55
monsi@@ 55
liny 55
fí@@ 55
skon@@ 55
ano. 55
hé 55
národní 55
saz@@ 55
imu 55
ém 55
hru 55
rekla@@ 55
ъ@@ 55
hmo@@ 54
zka 54
ď@@ 54
kolá@@ 54
vle@@ 54
tvo@@ 54
nci 54
stek 54
mej@@ 54
р 54
vidu@@ 54
srp@@ 54
skla@@ 53
celo@@ 53
pál@@ 53
št@@ 53
uji@@ 52
lome@@ 52
projekt 52
preamb@@ 52
ª@@ 52
 52
sbí@@ 52
tva@@ 52
ceno 52
lela 52
plá@@ 52
chirur@@ 52
tej 51
lete@@ 51
zí@@ 51
ván 51
energeti@@ 51
throu@@ 51
áv@@ 51
jeli@@ 51
tě@@ 51
trá@@ 50
komuni@@ 50
ﬃ@@ 50
žen@@ 50
ό 50
zna 50
vali 50
dnem 50
tati 50
králov@@ 49
significan@@ 49
ñ 49
netu@@ 49
rož@@ 49
dota@@ 49
bav@@ 49
spol@@ 49
я 49
záj@@ 49
@@ 49
tky 49
teř@@ 49
hoto 48
naje@@ 48
dobro@@ 48
 48
polov@@ 48
hlav@@ 48
zdra@@ 47
likeli@@ 47
ci. 47
tady 47
@@ 47
lík 47
ych@@ 47
omez@@ 47
manufac@@ 47
nej@@ 46
slem 46
čko 46
¬@@ 46
pó@@ 46
voz@@ 46
kape@@ 45
fot@@ 45
î 45
cela 45
láska 45
ɶ 45
či 44
intero@@ 44
cypr@@ 44
asisten@@ 44
anou 44
nské 44
př@@ 44
teda 44
his/@@ 44
legra@@ 43
hrá@@ 43
dva 43
dka 43
dech@@ 43
berte 43
zvol@@ 43
posti@@ 43
zbo@@ 42
okra@@ 42
boru 42
ehm 42
vem 42
čá@@ 42
hlu@@ 42
rating@@ 42
ostr@@ 42
⁈ 42
ά 42
lní 41
 41
reziden@@ 41
≠ 41
rande 41
ňá@@ 41
ofici@@ 41
sny 41
penal@@ 41
valo 41
÷ 41
voda 41
pře@@ 41
hlí@@ 41
nové 40
mne 40
kli 40
cí 40
đ@@ 40
zme@@ 40
kultur@@ 40
@@ 40
ekonomi@@ 40
ę 40
΄@@ 40
oblo@@ 40
‰ 40
boj@@ 40
ц@@ 39
dost@@ 39
-de 39
úřad 39
ù@@ 39
žky 39
cvi@@ 39
е 39
velké 38
kamer@@ 38
nula 38
ová@@ 38
‐ 38
²@@ 38
lii 38
slation 38
pobytu 38
nul 38
děl 38
ticky 38
šku 37
redit@@ 37
vlast@@ 37
hospod@@ 37
nosti 37
s“ 37
ļ@@ 37
ův 37
struktur@@ 37
nale@@ 37
živ@@ 37
nosi@@ 37
bez 37
nich 37
milion@@ 37
inzu@@ 37
víno 37
exeku@@ 37
osla@@ 37
polí@@ 37
nový 36
@@ 36
tovi 36
▪ 36
sb. 36
nejvyšší 36
†@@ 36
vesel@@ 36
želez@@ 36
ská@@ 36
ukon@@ 36
obchodu 36
ít 36
drá@@ 35
plemen@@ 35
pojišťov@@ 35
π 35
@@ 35
ю@@ 35
smí@@ 35
г 35
resta@@ 35
❑ 35
vše@@ 35
ostrov@@ 35
rny 35
alifi@@ 35
klini@@ 35
я@@ 35
pared 35
ь@@ 35
ště 35
spí@@ 35
į@@ 35
″@@ 34
vyh@@ 34
svat@@ 34
deme 34
hlava 34
≠@@ 34
tisk@@ 34
rodin@@ 33
posl@@ 33
drž@@ 33
stup 33
hran@@ 33
poru@@ 33
byd@@ 33
jí@@ 33
šť@@ 33
hory 33
zech 33
pohy@@ 33
hodin@@ 33
pán 33
zby@@ 33
rý@@ 33
slab@@ 33
roli 32
@@ 32
smy 32
µ 32
vti@@ 32
doty@@ 32
penzi@@ 32
 32
tyto 32
rád 32
prů@@ 32
okre@@ 32
konstruk@@ 32
samo 32
ldn 32
slep@@ 32
duš@@ 32
obraz@@ 32
mezi@@ 32
н 32
leta@@ 31
¼@@ 31
bě@@ 31
jde@@ 31
chová 31
vyšší 31
obran@@ 31
samy 31
lisb@@ 31
sice 31
odpo@@ 30
strana 30
jasper@@ 30
haly 30
boj 30
forem 30
й@@ 30
ží@@ 30
průmyslu 30
kolo 30
ád@@ 30
sobo@@ 30
klad@@ 30
luce@@ 30
lovat 30
eligi@@ 30
sankce 30
píse@@ 29
pomoc 29
eil 29
stave@@ 29
professi@@ 29
hno@@ 29
@@ 29
ζ@@ 29
¦@@ 29
typ 29
zó@@ 29
dce@@ 29
kud 29
zhor@@ 29
ϊ@@ 28
žit@@ 28
žek 28
ške@@ 28
malá 28
schengen@@ 28
dumping@@ 28
zku@@ 28
ф@@ 28
nict@@ 28
ša@@ 28
ч@@ 28
beru 28
politik 28
toto@@ 28
и 28
parlamen@@ 28
ύ 28
elu 28
 28
notá@@ 28
finanční 28
nické 28
ж@@ 27
elec 27
↔@@ 27
skou 27
tomu@@ 27
stoj@@ 27
aná 27
město 27
unii 26
atd 26
sně@@ 26
ji. 26
trv@@ 26
 26
л 26
rech 26
 26
advokát 26
úni@@ 26
zeno 26
║@@ 26
konkuren@@ 26
bila 26
˚@@ 26
stej@@ 26
správní 26
šen@@ 26
zaš@@ 26
softw@@ 26
trem 25
programu 25
cír@@ 25
ʻ@@ 25
ový 25
¬ 25
kuku@@ 25
ři 25
čt@@ 25
pokry@@ 25
krimin@@ 25
с 25
agentur 25
evropsk@@ 25
zákon@@ 25
tento@@ 25
akt 25
@@ 25
lá 25
‛@@ 25
pravda 25
okam@@ 25
rodina 25
krás@@ 25
desti@@ 25
těch 25
dopro@@ 25
ostatní 25
poš@@ 25
zva 25
kár@@ 24
tý@@ 24
ové 24
doma 24
slá@@ 24
hrani@@ 24
ʼ 24
ředitelství 24
aná@@ 24
konzer@@ 24
psan@@ 24
jeh@@ 24
@@ 24
dvůr 24
žka 24
osti 24
kazu 24
žá@@ 24
potk@@ 24
sila 24
společnost 24
zeni 24
√@@ 24
 24
ného 24
kuf@@ 24
taci 24
rá 23
pří@@ 23
kne 23
refri@@ 23
ucha@@ 23
čí 23
proto 23
chod 23
adlo 23
mladá 23
odbor@@ 23
̇@@ 23
akor@@ 23
sezna@@ 23
 23
povolení 23
dili 23
zba@@ 23
ubo@@ 23
mlu@@ 23
， 23
elektroni@@ 23
guver@@ 23
okol@@ 22
nesen@@ 22
tí 22
vlá@@ 22
nám 22
zemědělství 22
ču@@ 22
@@ 22
neme 22
tvr@@ 22
dobro 22
∫ 22
terap@@ 22
hovno 22
ō@@ 22
stvo@@ 22
ku. 22
eho 22
ı 22
zákon 22
dům 21
konfigu@@ 21
svobody 21
sová 21
 21
zdr@@ 21
ských 21
podě@@ 21
velká 21
udě@@ 21
⎪ 21
 21
portuni@@ 21
poc@@ 21
mimoto 21
osu 21
jela 21
utr@@ 21
 21
stře@@ 21
kontak@@ 21
bere 21
ér 21
státní 21
zvo@@ 21
≈ 21
zkra@@ 21
cuk@@ 21
lí 21
strategie 21
má 21
ố@@ 21
čas 21
új@@ 21
 21
@@ 21
dalo 21
¹@@ 21
verze 20
bí 20
 20
strá@@ 20
podnik 20
jte 20
fondu 20
černý 20
ochran@@ 20
toti@@ 20
veden@@ 20
 20
ká 20
dlan@@ 20
horní 20
lý 20
œ 20
ač@@ 20
profil 20
dete 20
nena@@ 20
ám 20
špin@@ 20
kové 19
při@@ 19
nala 19
zdro@@ 19
‡@@ 19
stí@@ 19
ы@@ 19
empe@@ 19
klá@@ 19
šťastný 19
čast@@ 19
ĕ@@ 19
likvid@@ 19
struktu@@ 19
ština 19
zte 19
 19
partne@@ 19
ústav@@ 19
krk 19
noci 19
¾@@ 19
tace 19
skup@@ 18
kombin@@ 18
‟@@ 18
vš@@ 18
mezinárodních 18
inafter 18
kontra@@ 18
dž@@ 18
ekologi@@ 18
ekon@@ 18
uš@@ 18
dík 18
obchod 18
dva@@ 18
kaš@@ 18
jist@@ 18
sklá@@ 18
otec 18
probu@@ 18
tvar 18
ċ@@ 18
iná@@ 18
¸@@ 18
 18
tvor@@ 17
?“ 17
romá@@ 17
hej 17
ō 17
ruka 17
smluv 17
tinu 17
komple@@ 17
čný 17
į 17
ˮ 17
řka 17
 17
‟ 17
spek@@ 17
kce 17
prak@@ 17
dech 17
evropské 17
zmá@@ 17
pohotov@@ 17
ٱ 17
ouldn 17
konver@@ 17
slova 17
hrub@@ 17
jedno@@ 17
ško@@ 17
ί 17
atek 17
doku@@ 17
palá@@ 17
kost 17
tisk 17
cemi 17
centra 17
dny 16
leda@@ 16
抯 16
pokr@@ 16
lovu 16
lidi 16
tisíce 16
ků@@ 16
ži 16
yho 16
 16
jako 16
tého 16
ství 16
neza@@ 16
klad 16
průmysl@@ 16
a“ 16
uveden 16
ochranu 16
diska 16
 16
т 16
klí@@ 16
bruselu 16
ář 16
rakov@@ 16
sný 16
vysoká 16
snu 16
ż 16
du. 16
hospodářské 16
já 16
д 16
sestra 16
dce 16
jde 16
stři@@ 16
krá@@ 16
dobr@@ 16
kří@@ 16
liš@@ 16
ш@@ 16
ští@@ 16
 16
hlubo@@ 16
tury 16
kupu@@ 16
ehs 16
styl 16
černá 16
šá@@ 16
jeme 15
smu 15
aktiv@@ 15
toru 15
onu 15
dava@@ 15
át 15
paří@@ 15
ého 15
podni@@ 15
 15
@@ 15
šar@@ 15
jmen@@ 15
měst@@ 15
řil 15
ĺ@@ 15
zástupců 15
sní 15
dph 15
boty 15
ského 15
 15
ši 15
tý 15
tří@@ 15
produkt 15
státních 15
ķ@@ 15
štá@@ 15
stráž@@ 15
doby 15
osob@@ 15
proni@@ 15
ných 15
univerz@@ 15
investiční 15
kles@@ 15
zpět 15
dlo 15
centrální 14
zima 14
jednat 14
y“ 14
stý@@ 14
discri@@ 14
velko@@ 14
rovi 14
vace 14
svě@@ 14
skem 14
ád 14
mysl 14
✔ 14
chala 14
ى 14
orov@@ 14
ḡ 14
mky 14
bodu 14
vál@@ 14
 14
obchod@@ 14
dvoj@@ 14
zas@@ 14
抰 14
deset 14
krou@@ 14
prv@@ 14
svět@@ 14
kdo 14
к 14
hlin@@ 13
@@ 13
י@@ 13
ře 13
pova@@ 13
lze 13
fotogra@@ 13
séri@@ 13
¯ 13
proti 13
bydliště 13
konzul@@ 13
zemi 13
rybo@@ 13
dami 13
ў 13
tř@@ 13
kej 13
jisto@@ 13
΄ 13
profesion@@ 13
míst 13
ī 13
nová@@ 13
tní 13
zálo@@ 13
uje 13
šer@@ 13
ků 13
odvolací 13
ġ@@ 13
tná 13
trvalé 13
telka 13
inou 13
sran@@ 13
soubor 13
novin@@ 13
aný 13
zru@@ 13
 13
laci 13
stalo 13
▼@@ 13
dli 13
☒ 13
zabi@@ 13
há 13
ím 13
dně 12
technická 12
meny 12
krom 12
olu 12
dové 12
osoby 12
@@ 12
práce 12
tíme 12
ų@@ 12
÷@@ 12
ц 12
zeměděl@@ 12
videl 12
♫@@ 12
zvon@@ 12
tepl@@ 12
ďá@@ 12
kardi@@ 12
dí 12
okru@@ 12
slad@@ 12
ozna@@ 12
psat 12
mý@@ 12
čná 12
domé@@ 12
kři@@ 12
zti@@ 12
společenství 12
proces 12
obnov@@ 12
listy 12
níky 12
mysle@@ 12
záv@@ 12
telefon 12
živo@@ 12
mysl@@ 12
žen 12
staré 12
unaven@@ 12
mout 12
sprav@@ 12
liamen@@ 12
právní 12
mlá@@ 12
ář@@ 12
dnes 12
esv@@ 12
lety 12
ē 12
livosti 12
@@ 12
dila 12
ў@@ 12
hroz@@ 12
itní 12
kompen@@ 11
železni@@ 11
akci@@ 11
pozem@@ 11
zaru@@ 11
vány 11
klo 11
dů@@ 11
ví 11
tvá@@ 11
prosto@@ 11
erem 11
blí@@ 11
agentura 11
@@ 11
ξ 11
 11
zobrazit 11
bý@@ 11
žele@@ 11
№ 11
teli 11
nebo 11
ení 11
panen@@ 11
ového 11
ovat 11
vlády 11
gace 11
záru@@ 11
─@@ 11
středo@@ 11
strukturální 11
červen@@ 11
stán 11
rů@@ 11
ný@@ 11
trest 11
kapal@@ 11
ь 11
johne 11
atech 11
fale@@ 11
є 11
ových 11
čtyři 11
zpo@@ 10
@@ 10
prodej 10
řov@@ 10
ckého 10
čera 10
zvě@@ 10
taky 10
jete 10
císa@@ 10
část 10
ovaná 10
kdo@@ 10
drog@@ 10
pev@@ 10
whil@@ 10
podla@@ 10
škola 10
∗ 10
inova@@ 10
vrá@@ 10
sband 10
tablety 10
formy 10
naby@@ 10
léčeb@@ 10
klady 10
stará 10
registru 10
kyse@@ 10
ktech 10
sté 10
posto@@ 10
rezer@@ 10
kalen@@ 10
prask@@ 10
fondy 10
správa 10
zkouška 10
☞ 10
potra@@ 10
tud 10
podal 10
stroj@@ 10
poj@@ 10
û 10
váz@@ 10
cích 10
│@@ 10
čit@@ 10
dětí 10
niture 10
stanovi@@ 10
ané 10
panu 10
koste@@ 10
mů@@ 10
výzkumu 10
plaz@@ 10
tegori@@ 10
měří@@ 10
◻ 10
nese@@ 10
jme 9
řen@@ 9
možnost 9
dné 9
rozp@@ 9
objekt 9
mezináro@@ 9
sý@@ 9
poda@@ 9
kniha 9
postup@@ 9
papí@@ 9
ΐ@@ 9
ū 9
zisk@@ 9
razy 9
nku 9
byt@@ 9
pě@@ 9
hranice 9
agentu@@ 9
práva 9
podporu 9
podpora 9
oble@@ 9
plom@@ 9
vlastnictví 9
skupina 9
@@ 9
projekty 9
≧@@ 9
čtu 9
щ@@ 9
obil@@ 9
podob@@ 9
struk@@ 9
douf@@ 9
bej 9
kuje 9
rozvoje 9
období 9
zalo@@ 9
svět 9
sekre@@ 9
podr@@ 9
pohled 9
hlavní 9
krásná 9
jní 9
dku 9
šť 9
koordin@@ 9
letiště 9
vojen@@ 9
diture 9
chlu@@ 9
vyk@@ 9
toku 9
˂@@ 9
dě 9
zahrani@@ 9
mí 9
teční 9
žní 9
král 9
trval@@ 9
blb@@ 9
velk@@ 9
letu 9
listop@@ 9
dubna 9
registrace 9
šte 9
bych 9
@@ 9
čil 9
 9
nili 8
tíš 8
 8
hodiny 8
pí 8
klou@@ 8
urč@@ 8
ě 8
spor 8
neš 8
kter@@ 8
pomoc@@ 8
nebe 8
jeli 8
stanice 8
ovoce 8
sech 8
ží 8
budov@@ 8
zákony 8
malé 8
daň@@ 8
kartel@@ 8
kně@@ 8
další 8
¸ 8
roval 8
spal 8
inteli@@ 8
jist 8
trh 8
služby 8
hudeb@@ 8
propu@@ 8
právo 8
není 8
rozhodnutí 8
něme@@ 8
dvacá@@ 8
jsou 8
zbro@@ 8
odol@@ 8
kupo@@ 8
⌧ 8
považ@@ 8
vysoké 8
nomen@@ 8
m“ 8
inami 8
rám@@ 8
kulturní 8
pacity 8
mož@@ 8
ování 8
restruktur@@ 8
jí 8
shle@@ 8
ζ 8
parlamentu 8
ƒ@@ 8
jazy@@ 8
soutěže 8
cizin@@ 8
ohni@@ 8
poko@@ 8
vás 8
subsequ@@ 8
inici@@ 8
rakousko 8
malý 8
zbra@@ 8
chemické 8
kapitál@@ 8
kouz@@ 8
záro@@ 8
kontin@@ 8
ruka@@ 8
velikost 8
řízení 8
alizace 8
← 8
soudních 8
odkaz 8
stránek 8
 7
★ 7
žena 7
název 7
vky 7
‖ 7
hvěz@@ 7
osob 7
roze@@ 7
dovo@@ 7
@@ 7
systém 7
ním 7
inspekce 7
podnika@@ 7
koly 7
dý@@ 7
hodno@@ 7
tů 7
statek 7
olej 7
trh@@ 7
≡ 7
dán@@ 7
@@ 7
∶@@ 7
rozvo@@ 7
hová 7
stavební 7
ʼ@@ 7
@@ 7
předmě@@ 7
cku 7
venkova 7
kontakt 7
doktor@@ 7
ψ 7
regionální 7
љ@@ 7
sekretari@@ 7
nete 7
zdvi@@ 7
chvil@@ 7
mrt@@ 7
podniku 7
ostrov 7
 7
zabili 7
hele 7
hled 7
srdce 7
koupil 7
rameno 7
tilo 7
domov@@ 7
šil 7
▼ 7
kový 7
ích 7
ložen@@ 7
χ 7
policaj@@ 7
pozice 7
י 7
 7
zeny 7
moje 7
informace 7
 7
@@ 7
potravinář@@ 7
teku@@ 7
ztra@@ 7
 7
parlament 7
jsem 7
ších 7
nictví 7
karié@@ 7
ا@@ 7
duch 7
brá@@ 7
sudek 7
razil 7
akce 7
itá@@ 7
matu 7
bami 7
harmoniz@@ 7
občan@@ 7
ána 7
chví@@ 7
zdravot@@ 7
dej 7
і@@ 7
ي@@ 7
dvora 7
►@@ 7
žď@@ 7
huje 7
relev@@ 7
˚ 7
výroba 7
omá@@ 7
vyrob@@ 7
 7
rozvoj 7
nicí 7
illance 7
svá@@ 7
ulice 7
stroj 7
prosince 7
prá@@ 6
nejen 6
řada 6
hroma@@ 6
obchodní 6
ým 6
metod@@ 6
vyz@@ 6
také 6
 6
konference 6
spolufinancování 6
sebe 6
šky 6
rádi@@ 6
britá@@ 6
ce“ 6
爀@@ 6
ŷ 6
dcer@@ 6
proml@@ 6
odu 6
trů 6
tento 6
vám 6
ё 6
ráno 6
 6
stech 6
některých 6
obec@@ 6
podpory 6
₂ 6
dá 6
kdy@@ 6
bezpečnostní 6
hvě@@ 6
rně 6
dostal 6
krý@@ 6
ký@@ 6
více 6
visl@@ 6
rozpočet 6
fyzi@@ 6
ženy 6
vozi@@ 6
mezi 6
trž@@ 6
ckých 6
konsoli@@ 6
jede 6
compon@@ 6
okolí 6
dopravy 6
pacien@@ 6
seznam 6
ј@@ 6
stavy 6
rové 6
projektu 6
pneumati@@ 6
п 6
změně 6
rozpočtových 6
typy 6
tebe 6
♀@@ 6
boku 6
ší 6
parku 6
sné 6
sť@@ 6
vodou 6
šná 6
čník 6
hotov@@ 6
hlad 6
kace 6
kře@@ 6
první 6
rozvoj@@ 6
∙@@ 6
krok 6
rej 6
vrch@@ 6
zdá@@ 6
ф 6
stanov@@ 6
subjek@@ 6
tomu 6
ư@@ 6
ⅹ@@ 6
@@ 6
pozd@@ 6
zace 6
stál 6
šné 6
kategori@@ 6
‒ 6
rámec 6
pisy 6
pátek 6
│ 6
ז@@ 6
vše 6
ministerstva 6
vzta@@ 6
ány 6
číslo 6
kultury 6
tická 6
texty 6
 6
mít 6
tři 6
května 6
umě@@ 6
ovla@@ 6
potah@@ 6
sbě@@ 6
moci 6
 6
jižní 6
dobrá 6
byt 6
čních 6
umění 6
dán 6
onech 6
 5
uhlí@@ 5
díl@@ 5
člen 5
vku 5
disku@@ 5
čného 5
desá@@ 5
knihov@@ 5
balí@@ 5
rež@@ 5
fakt 5
tém 5
lidí 5
nění 5
@@ 5
scé@@ 5
blá@@ 5
tepel@@ 5
poskyt@@ 5
kluk 5
dovol@@ 5
výrobní 5
э@@ 5
senát 5
vů@@ 5
hlas@@ 5
skry@@ 5
zají@@ 5
nomenkla@@ 5
ehp 5
praš@@ 5
∑@@ 5
byly 5
sady 5
 5
ŕ 5
kval@@ 5
ochrany 5
financov@@ 5
chyba 5
povol@@ 5
mte 5
pravidlech 5
ních 5
žený 5
obdob@@ 5
anci 5
 5
vající 5
koup@@ 5
krásný 5
ům 5
belgie 5
○ 5
sdružení 5
zí 5
plí@@ 5
dovi 5
povr@@ 5
zabezpečení 5
kolon@@ 5
tách 5
míst@@ 5
ⁿ 5
u“ 5
 5
evropská 5
čest@@ 5
pozi@@ 5
pů@@ 5
radost 5
rozto@@ 5
struktura 5
svob@@ 5
škol@@ 5
ují 5
zuby 5
rozu@@ 5
​ 5
činy 5
lož@@ 5
sociálního 5
vní 5
konzu@@ 5
vlastní 5
￡ 5
čné 5
vlastních 5
漢@@ 5
hrála 5
ɵ 5
˜@@ 5
muž@@ 5
modr@@ 5
mlad@@ 5
kovat 5
koval 5
skut@@ 5
šo@@ 5
hně@@ 5
aktiv 5
∙ 5
nene@@ 5
neum@@ 5
čtvr@@ 5
souvisejících 5
kámen 5
poskytování 5
bude 5
˙@@ 5
obou 5
visory 5
pomoci 5
韆 5
nahoru 5
jsi 5
ר@@ 5
knout 5
ế@@ 5
spotřebi@@ 5
víc 5
čku 5
kvalifi@@ 5
poraden@@ 5
prezen@@ 5
∏ 5
tj. 5
oblasti 5
inovace 5
һ@@ 5
čilo 5
žal@@ 5
♦ 5
makro@@ 5
í. 5
tři@@ 5
rychlé 4
stický 4
cyk@@ 4
kni 4
komunikace 4
♬ 4
západ 4
stří@@ 4
lár@@ 4
ály 4
kořen@@ 4
polsko 4
lově 4
odpad@@ 4
důstojník 4
bytu 4
mimo 4
října 4
řej@@ 4
nepro@@ 4
doru@@ 4
reprezen@@ 4
tku 4
ované 4
společen@@ 4
potenci@@ 4
chce@@ 4
poby@@ 4
základního 4
toho@@ 4
ĳ 4
⋅@@ 4
lej 4
č. 4
‴ 4
stvu 4
linu 4
doplňkové 4
toho 4
nevy@@ 4
evropskou 4
pravidla 4
daňové 4
kdyby 4
byla 4
vě 4
chý@@ 4
攀@@ 4
dopl@@ 4
generace 4
skří@@ 4
členů 4
informu@@ 4
ohle@@ 4
tické 4
íte 4
registro@@ 4
černo@@ 4
dý 4
metodi@@ 4
hů@@ 4
rní 4
dlouhá 4
klasi@@ 4
koneč@@ 4
velký 4
⁄@@ 4
nali 4
pono@@ 4
telství 4
prostoru 4
chom 4
východ@@ 4
prášek 4
ným 4
životního 4
ё@@ 4
nemovit@@ 4
oprávnění 4
doprava 4
ⅿ@@ 4
agentury 4
pobře@@ 4
jste 4
з 4
demokra@@ 4
konce@@ 4
poč@@ 4
úda@@ 4
obecná 4
cestov@@ 4
spolu@@ 4
níku 4
níka 4
křiž@@ 4
vrátil 4
jeden 4
řad@@ 4
války 4
vodní 4
financí 4
ΰ@@ 4
jedna@@ 4
výstav@@ 4
lucembur@@ 4
ţ 4
poku@@ 4
ač 4
ími 4
dokument 4
veřejnosti 4
vedu 4
hnu@@ 4
orgá@@ 4
stránky 4
mír@@ 4
zadek 4
zlom@@ 4
ร@@ 4
zná 4
ském 4
naš@@ 4
stroje 4
⌠@@ 4
dky 4
hvězd@@ 4
vánoce 4
uju 4
ovou 4
vozidel 4
štěm 4
★@@ 4
城 4
bát 4
zů@@ 4
♣ 4
ї@@ 4
zdi 4
injekční 4
prázd@@ 4
prostředí 4
bydlení 4
‹ 4
generální 4
ního 4
uplat@@ 4
téma 4
➔ 4
vět@@ 4
ˑ 4
boží 4
@@ 4
@@ 4
pomal@@ 4
ému 4
￯@@ 4
zde 4
bože 4
pís@@ 4
studie 4
ené 4
˂ 4
vývoje 4
mozku 4
 4
≈@@ 4
zvu@@ 4
vedoucí 4
porá@@ 4
jád@@ 4
jíz@@ 4
domá@@ 4
urá@@ 4
šance 4
kré@@ 4
dlu 4
kvap@@ 4
návrh 4
jazyk 4
jakou@@ 4
ڤ 4
místní 4
sklo 4
skot@@ 4
zelené 4
opatr@@ 4
tové 4
dár@@ 4
dilo 4
漀@@ 4
koupit 4
dová@@ 4
šest 4
vydání 4
dobrý 4
dobré 4
východ 4
@@ 4
átor 4
bytek 4
potravin@@ 4
ahoj 4
zpě@@ 4
třída 4
alkohol@@ 4
život 4
@@ 4
čných 4
lékař@@ 4
pohod@@ 3
◦ 3
zpí@@ 3
vý 3
budoucí 3
podpo@@ 3
dlou@@ 3
stoup@@ 3
parkov@@ 3
mého 3
technické 3
ț 3
systémov@@ 3
leč@@ 3
∆@@ 3
nákladní 3
klíč 3
uvol@@ 3
ĺ 3
niž@@ 3
míru 3
pusu 3
inteligen@@ 3
arů 3
več@@ 3
ošk@@ 3
lovi 3
pokrač@@ 3
lové 3
západní 3
ѕ@@ 3
musel 3
@@ 3
ũ@@ 3
kách 3
 3
straš@@ 3
až 3
 3
dítě 3
kontrol 3
verzi 3
žu 3
procen@@ 3
kdy 3
nepat@@ 3
х 3
nesl 3
chodil 3
celní 3
ף@@ 3
ťák 3
říš 3
technologií 3
jej 3
bů 3
raci 3
slib 3
hlavy 3
regionu 3
poky@@ 3
pohle@@ 3
@@ 3
slovo 3
elektrá@@ 3
ѕ 3
skupiny 3
注@@ 3
před 3
bylo 3
zač@@ 3
krač@@ 3
drů@@ 3
establi@@ 3
podnikání 3
poskytov@@ 3
ruce 3
rostlin@@ 3
nutí 3
kční 3
minut 3
programy 3
nilo 3
listopadu 3
nila 3
krát@@ 3
americké 3
odrů@@ 3
dět@@ 3
kní@@ 3
ψ@@ 3
spojených 3
 3
podle 3
kyně 3
ĳ@@ 3
rozva@@ 3
znalosti 3
obě@@ 3
díky 3
před@@ 3
medvě@@ 3
 3
něm@@ 3
pád@@ 3
dotace 3
starý 3
terapie 3
bohem 3
vývo@@ 3
ŕ@@ 3
zní 3
∼@@ 3
kapitá@@ 3
ovací 3
beze 3
systémy 3
sví@@ 3
pracov@@ 3
celý 3
soudržnosti 3
zastoupení 3
vody 3
vyu@@ 3
kého 3
čel@@ 3
analýza 3
cený 3
hodnoty 3
tří 3
postav@@ 3
ýma 3
⬇ 3
ถ@@ 3
‰@@ 3
tiskár@@ 3
motoru 3
sluš@@ 3
zadní 3
prvního 3
adresu 3
mladé 3
 3
politika 3
severní 3
pobyt 3
podmínky 3
livé 3
povo@@ 3
jích 3
‎@@ 3
podporu@@ 3
vítěz@@ 3
álního 3
hř@@ 3
sní@@ 3
pozdra@@ 3
stky 3
意 3
obalu 3
⌘ 3
heslo 3
rozhodla 3
řa@@ 3
nalo 3
oprav@@ 3
střední 3
zdálo 3
zmoc@@ 3
provozu 3
brána 3
zdraví 3
lení 3
přítel 3
objem 3
@@ 3
chá 3
áda 3
tivní 3
ו 3
očima 3
lů 3
poprav@@ 3
francouz@@ 3
rodiny 3
informační 3
ල@@ 3
dopředu 3
půl@@ 3
celá@@ 3
vliv 3
mě 3
šat@@ 3
ל@@ 3
irá@@ 3
mláde@@ 3
⬆ 3
vyj@@ 3
inovací 3
hmotnost 3
služba 3
alergi@@ 3
tržní 3
praved@@ 3
podpoře 3
potla@@ 3
hospodářství 3
sché@@ 3
kání 3
vodu 3
hlas 3
kázá@@ 3
enou 3
vstup 3
˝ 3
hladin@@ 3
є@@ 3
dím 3
znač@@ 3
@@ 3
plav@@ 3
vyvol@@ 3
ovaný 3
ální 3
vech 3
mentu 3
ل@@ 3
pojist@@ 3
stanovené 3
movit@@ 3
komisi 3
zastav@@ 3
dozadu 3
vyš@@ 3
výroby 3
spoj@@ 3
kurva 3
 3
hodin 3
šir@@ 3
מ@@ 3
krt@@ 3
ل 3
ď 3
orgány 3
hře@@ 3
mamin@@ 3
srd@@ 3
malého 3
sítě 3
míra 3
potenciál 3
skupin@@ 3
šti 3
znám@@ 3
ujte 3
ráme@@ 3
nemocnice 3
tují 3
všechny 3
uži@@ 3
řské 3
hnout 3
ใ@@ 3
budem 3
nedá 3
mezinárodní 3
ћ@@ 3
čila 3
 3
dvaná@@ 3
zval 3
států 2
ával 2
rybář@@ 2
zasta@@ 2
@@ 2
údo@@ 2
přehled 2
politiku 2
farmako@@ 2
nájem@@ 2
atý 2
součas@@ 2
území 2
inspektor 2
כ@@ 2
zastáv@@ 2
prostor 2
vče@@ 2
한@@ 2
koho 2
pokus 2
dvě@@ 2
kancelá@@ 2
šet@@ 2
bní 2
června 2
šený 2
výrobců 2
byli 2
₤ 2
osn 2
ráda 2
strý@@ 2
lidé 2
ⅰ 2
ו@@ 2
vedlo 2
usnesení 2
álních 2
ovali 2
jedine@@ 2
kterými 2
zce 2
stě@@ 2
potvrzení 2
mýš@@ 2
ⅽ@@ 2
služeb@@ 2
̂@@ 2
 2
čín@@ 2
milá@@ 2
inách 2
barvy 2
tiky 2
⬅ 2
námitky 2
služ@@ 2
domů 2
turu 2
producen@@ 2
ovaní 2
naprav@@ 2
stavu 2
ací 2
dostupné 2
‾@@ 2
neroz@@ 2
س@@ 2
⁭ 2
spolupráce 2
lů@@ 2
šení 2
čení 2
ješ 2
▐@@ 2
domlu@@ 2
je. 2
šel 2
@@ 2
japon@@ 2
běh@@ 2
vypad@@ 2
která 2
které 2
ف@@ 2
řena 2
perorá@@ 2
碈@@ 2
ených 2
nás 2
ček@@ 2
už 2
chrá@@ 2
ب@@ 2
 2
serveru 2
nebudu 2
☆@@ 2
plement 2
noční 2
ctví 2
firmy 2
ش@@ 2
náku@@ 2
ج 2
ném 2
ῶ 2
šem 2
hoř@@ 2
doklady 2
přechod@@ 2
ơ@@ 2
óza 2
ˑ@@ 2
ר 2
rovou 2
schov@@ 2
úvodní 2
časy 2
tudy 2
uzav@@ 2
schod@@ 2
způsob@@ 2
最@@ 2
隝 2
zkušební 2
zajištění 2
ߦ 2
⎯ 2
vstupu 2
tně 2
společnosti 2
matka 2
zpravodaj@@ 2
د 2
společností 2
tním 2
druhý 2
nuto 2
financování 2
dědi@@ 2
moji 2
evropských 2
násled@@ 2
advoká@@ 2
káme 2
střediska 2
琀@@ 2
zdan@@ 2
současné 2
přísluš@@ 2
dodava@@ 2
ֽ@@ 2
∂@@ 2
bankov@@ 2
automobil@@ 2
dlouhý 2
vypla@@ 2
příro@@ 2
 2
sláv@@ 2
rostlin 2
polož@@ 2
ن@@ 2
ckou 2
západ@@ 2
šim 2
pohledávky 2
párty 2
slune@@ 2
platební 2
pni 2
volat 2
̀@@ 2
ⅰ@@ 2
čená 2
ම@@ 2
sklad@@ 2
právem 2
ředi@@ 2
federace 2
@@ 2
půj@@ 2
ව 2
dokumenty 2
tranz@@ 2
prosím 2
potraviny 2
jedin@@ 2
倍@@ 2
ptá@@ 2
kladu 2
všech@@ 2
@@ 2
čně 2
ⅼ@@ 2
ační 2
国@@ 2
dejte 2
čaj 2
článku 2
dohoda 2
čkou 2
ס@@ 2
tovní 2
dív@@ 2
lový 2
závě@@ 2
tlak 2
konstru@@ 2
systému 2
prostředků 2
cuje 2
️@@ 2
faktory 2
首@@ 2
yorku 2
ǒ@@ 2
velmi 2
dáno 2
dává 2
celé 2
kci 2
rozhod@@ 2
skočit 2
obsahu 2
bílý 2
anglič@@ 2
poradenství 2
produkce 2
reakce 2
auta 2
lidských 2
欁@@ 2
﻿ 2
dohle@@ 2
安@@ 2
oč@@ 2
děl@@ 2
cenu 2
ocit@@ 2
ӡ@@ 2
jenom 2
zásady 2
historie 2
@@ 2
injekce 2
vlaj@@ 2
znete 2
byto@@ 2
vyhra@@ 2
šuje 2
koli 2
však 2
@@ 2
školu 2
kální 2
dobře 2
znov@@ 2
ledv@@ 2
externí 2
✔@@ 2
jící 2
než 2
rových 2
ر@@ 2
ovu 2
rám 2
dopravní 2
atd. 2
茅@@ 2
rytí@@ 2
obrá@@ 2
využi@@ 2
zmír@@ 2
kového 2
봐@@ 2
člově@@ 2
dří@@ 2
挀@@ 2
posle@@ 2
zřízení 2
adresa 2
⁄ 2
policie 2
okna 2
protokol 2
papírů 2
국@@ 2
 2
kluka 2
hned 2
rejstří@@ 2
řek 2
oběhu 2
kační 2
rozpočtu 2
ajících 2
dáte 2
˜ 2
閑 2
⎜ 2
přímý 2
aplikace 2
vyrábě@@ 2
mechanismu 2
љ 2
profesor@@ 2
西@@ 2
řem 2
řed 2
londý@@ 2
podí@@ 2
veteriná@@ 2
ه 2
informací 2
uložen@@ 2
š. 2
ateli 2
finančním 2
元@@ 2
výrobce 2
jů 2
ací@@ 2
bohat@@ 2
zkla@@ 2
 2
klasifikace 2
domácí 2
formá@@ 2
rozvod 2
infrastruktury 2
krátkodob@@ 2
poštovní 2
bílé 2
zmat@@ 2
valy 2
áni@@ 2
zaji@@ 2
úvě@@ 2
povím 2
њ@@ 2
vydáno 2
potravin 2
podání 2
níže 2
ostatních 2
roky 2
đ 2
陽 2
pěkná 2
pěkné 2
א 2
lém 2
růž@@ 2
stanoven@@ 2
teplo@@ 2
evropského 2
energii 2
osoba 2
vách 2
bří@@ 2
dodat@@ 2
boje 2
ruku 2
pamat@@ 2
buje 2
evropa 2
centrá@@ 2
ující 2
učení 2
léd@@ 2
˝@@ 2
hrdin@@ 2
daň 2
něž 2
váš 2
uješ 2
okolo 2
produkty 2
měři@@ 2
teč@@ 2
loty@@ 2
ค@@ 2
м 2
rámci 2
kontrolní 2
uveden@@ 2
jší 2
roztok 2
@@ 2
ŷ@@ 2
ých 2
spá@@ 2
vyberte 2
studii 2
ená 2
stát 2
níků 2
strán@@ 2
šní 2
otá@@ 2
@@ 2
znění 2
modré 2
iniciativ@@ 2
smlouva 2
smlouvy 2
perfektní 2
efektiv@@ 2
vyhle@@ 2
抳@@ 2
ⰰ 2
opravy 2
@@ 2
mohlo 2
@@ 2
jednodu@@ 2
muž 2
♭ 2
jeho 2
猀@@ 2
hospodářská 2
praxi 2
ї 2
péči 2
odí@@ 2
眉@@ 2
rozmě@@ 2
nů 2
mizer@@ 2
složek 2
metod 2
buň@@ 2
ještě 2
妓 2
zkuste 2
・@@ 2
natá@@ 2
šli 2
čini@@ 2
šla 2
čnou 2
zařízení 2
; 2
likvi@@ 2
vosti 2
kontrolu 2
ách 2
odpočin@@ 2
klid 2
výši 2
kamarád 2
něco 2
ředitel 2
širo@@ 2
zápa@@ 2
dohodě 2
vodit 2
matku 2
ktiv@@ 2
mém 2
torem 2
✀@@ 2
ŵ@@ 2
bního 2
tický 2
ờ@@ 2
▁@@ 2
vnit@@ 2
předseda 2
jové 2
ċ 2
ložil 2
chyb@@ 2
kanceláře 2
˘@@ 2
správce 2
evrop@@ 2
řez@@ 2
setk@@ 2
猀 2
metoda 2
matky 2
stala 2
 2
eston@@ 2
čist@@ 2
jedená@@ 2
₣ 2
ochranné 2
ministr 2
ầ@@ 2
bory 2
pozděj@@ 2
pozn. 2
bilní 2
spojené 2
aktu 2
osobní 2
nejsou 2
‹@@ 2
recueil 2
cech 2
zapla@@ 2
sledu@@ 2
výrob@@ 2
vyma@@ 2
učin@@ 2
tabá@@ 2
tuto 2
̶@@ 2
tisíc 2
sobě 2
klíč@@ 2
členové 2
礀 2
íš 2
čnost 2
愀@@ 2
předpisů 2
plyn 2
diskri@@ 2
výběr 2
týden 2
viny 2
dál 2
odva@@ 2
zku 2
‴@@ 2
karty 2
specifikace 2
třídy 2
čin 2
všechna 2
zpravodaj 2
lásky 2
어 2
obdr@@ 2
majet@@ 2
jazyce 2
hád@@ 2
lék 2
ústřední 2
ější 2
prch@@ 2
diskrimin@@ 2
№@@ 2
浙@@ 1
země 1
tím 1
風@@ 1
potřebuješ 1
hož 1
nahra@@ 1
výbě@@ 1
dáv@@ 1
ѓ@@ 1
夏@@ 1
pravomo@@ 1
民 1
 1
ící 1
dní 1
ŏ@@ 1
předložených 1
vojenské 1
ồ 1
hý@@ 1
víte 1
činnost 1
národních 1
tráv@@ 1
ự 1
ợ@@ 1
sové 1
ladu 1
léči@@ 1
údajů 1
dosah 1
použí@@ 1
sekund 1
opatření 1
pořad@@ 1
telné 1
částečně 1
býval@@ 1
malič@@ 1
zvý@@ 1
jedná@@ 1
stála 1
uvedených 1
síd@@ 1
螺@@ 1
státního 1
kontrola 1
úvěrové 1
skému 1
dohod@@ 1
dodatečné 1
zase 1
doved@@ 1
činností 1
předběžné 1
mluv 1
bližší 1
vyhledávání 1
měnit 1
旋@@ 1
zpátky 1
způsob 1
经@@ 1
pracovní 1
mnohem 1
tatí@@ 1
veřejných 1
áři 1
stní 1
kuchy@@ 1
zaká@@ 1
úpravy 1
řík@@ 1
tabul@@ 1
청@@ 1
ứ@@ 1
činnosti 1
aplik@@ 1
vejte 1
⨉ 1
špan@@ 1
stů@@ 1
republice 1
staven@@ 1
張@@ 1
ⅷ 1
psá@@ 1
obyvatel@@ 1
️ 1
takového 1
@@ 1
ovaných 1
opakov@@ 1
nějakou 1
otev@@ 1
zavr@@ 1
 1
stolu 1
dnešní 1
強@@ 1
datu 1
víme 1
žeš 1
@@ 1
ὴ@@ 1
minulosti 1
informov@@ 1
nemohou 1
ˆ@@ 1
doprav@@ 1
formální 1
manželé 1
̇ 1
ේ 1
nedě@@ 1
směrnice 1
prezidenta 1
vedle@@ 1
poruchy 1
barva 1
lékař 1
práci 1
レ@@ 1
 1
spravedlnost 1
věř@@ 1
osvobo@@ 1
zkou@@ 1
脷@@ 1
zjednodu@@ 1
loď@@ 1
uj 1
oceli 1
domu 1
počíta@@ 1
被@@ 1
zkouš@@ 1
vybran@@ 1
možnosti 1
existu@@ 1
slovin@@ 1
devět 1
náv@@ 1
ග@@ 1
baví 1
vykon@@ 1
hmot@@ 1
学 1
plánov@@ 1
ať 1
informačních 1
汗 1
nedovol@@ 1
ạ 1
proná@@ 1
představ@@ 1
zkušen@@ 1
žel 1
抮@@ 1
úlov@@ 1
﻿@@ 1
김@@ 1
těž@@ 1
posí@@ 1
bulhar@@ 1
vědom@@ 1
vzděláv@@ 1
 1
cháze@@ 1
strany 1
elektronické 1
samé 1
poskytnutí 1
můj 1
uká@@ 1
pisu@@ 1
dřevě@@ 1
važ@@ 1
místnost 1
 1
něno 1
čené 1
žádost 1
provozov@@ 1
̀ 1
б 1
vyle@@ 1
paní 1
zákona 1
pozorova@@ 1
veden 1
sklen@@ 1
ෞ@@ 1
chce 1
lhal 1
padek 1
žete 1
่@@ 1
ะ 1
správné 1
lových 1
zpracování 1
zprav@@ 1
káz@@ 1
vyvá@@ 1
čením 1
sloup@@ 1
@@ 1
ж 1
seznamu 1
srovna@@ 1
bezpe@@ 1
čela 1
rumun@@ 1
hlavou 1
kapitán 1
kratší 1
jestli 1
tká@@ 1
nebude 1
hové 1
expozice 1
庶@@ 1
tisí@@ 1
م@@ 1
脛@@ 1
řů 1
zasa@@ 1
urov@@ 1
ovala 1
美 1
druhů 1
nejs@@ 1
jenže 1
ustanoven@@ 1
reál@@ 1
měsí@@ 1
světa 1
ד 1
oddělení 1
oči 1
šit 1
druhy 1
producentů 1
samostat@@ 1
⌊@@ 1
jednání 1
mové 1
krále 1
podmínkách 1
subjekt 1
vítr 1
konvergen@@ 1
vidě@@ 1
@@ 1
bláz@@ 1
ා 1
restrukturalizace 1
rozum@@ 1
ukáz@@ 1
爾 1
zept@@ 1
ħ 1
週@@ 1
dovozu 1
爆@@ 1
ců 1
 1
lisabon@@ 1
vádě@@ 1
nákup 1
platí 1
riziko 1
jednom 1
domov 1
hlá@@ 1
skuteč@@ 1
tnost 1
podané 1
projektech 1
sídlo 1
komunikační 1
poruchou 1
rána 1
ránu 1
byste 1
ט@@ 1
člena 1
zemědělských 1
兵 1
otevřen@@ 1
pozadí 1
pohon@@ 1
ĕ 1
rového 1
telem 1
příloha 1
řené 1
zici 1
nového 1
škole 1
世@@ 1
@@ 1
zaměstnanců 1
významný 1
íku 1
řád 1
chej 1
stříbr@@ 1
íme 1
rované 1
objektiv@@ 1
♯ 1
ochrana 1
聖@@ 1
nuté 1
kají 1
dním 1
ා@@ 1
významných 1
nuty 1
nů@@ 1
nuta 1
milionů 1
budu 1
člověk 1
vzdělání 1
zeptat 1
マ@@ 1
světové 1
dostup@@ 1
portugalsko 1
soutěž 1
níz@@ 1
tování 1
dvou 1
洲 1
problemati@@ 1
莽@@ 1
麻@@ 1
dívka 1
ření 1
฿ 1
茅 1
ở@@ 1
environmentální 1
miluju 1
miluje 1
cestovní 1
vlh@@ 1
množství 1
hléd@@ 1
ב@@ 1
ห 1
správnou 1
stavit 1
trhy 1
námi 1
žádný 1
novou 1
薄@@ 1
soukromé 1
příspěvku 1
bezpečnosti 1
ダ@@ 1
tebou 1
toři 1
zauj@@ 1
žela 1
želi 1
천 1
opil@@ 1
předsed@@ 1
potřebujete 1
strojů 1
doporu@@ 1
剣 1
zavo@@ 1
okno 1
dokaz@@ 1
funguje 1
者 1
álu 1
promě@@ 1
ю 1
sledovat 1
střed@@ 1
národů 1
možný 1
možné 1
ňů 1
jšího 1
měr@@ 1
umožňuje 1
stačí 1
chytil 1
富@@ 1
podez@@ 1
termí@@ 1
irsko 1
přidat 1
odst. 1
předchozí 1
šíme 1
tým 1
respek@@ 1
půl 1
酒 1
˛ 1
žená 1
pích@@ 1
stránka 1
profese 1
teď 1
izra@@ 1
prová@@ 1
： 1
∞@@ 1
つ@@ 1
znovu 1
朝 1
růstu 1
pravidel@@ 1
rakou@@ 1
těžké 1
vrah 1
pěk@@ 1
říme 1
美@@ 1
opí@@ 1
naklá@@ 1
určen@@ 1
な@@ 1
léta 1
vojáci 1
nástroj 1
̣@@ 1
velice 1
posou@@ 1
města 1
splnění 1
chtěl 1
telnou 1
práv@@ 1
áty 1
み 1
්@@ 1
prodáv@@ 1
夏 1
榮@@ 1
pracuje 1
軍 1
mnou 1
právni@@ 1
uprchlí@@ 1
ු@@ 1
nýho 1
nezleti@@ 1
nané 1
terapii 1
podobné 1
大@@ 1
思@@ 1
drži@@ 1
života 1
nesení 1
zpráv 1
království 1
aspekty 1
ン@@ 1
zná@@ 1
hloup@@ 1
minuty 1
řeky 1
dových 1
druhá 1
podpor@@ 1
úřadu 1
pocit 1
kalendá@@ 1
myslu 1
⬅@@ 1
아@@ 1
계@@ 1
sociálních 1
中@@ 1
přá@@ 1
區 1
odvětv@@ 1
články 1
ající 1
vydané 1
obč@@ 1
sekun@@ 1
dodáv@@ 1
玉 1
čokol@@ 1
ả@@ 1
ledna 1
žijí 1
lách 1
postup 1
カ@@ 1
obecných 1
vybí@@ 1
analýzy 1
novat 1
‌@@ 1
ůr@@ 1
vých 1
pokud 1
ể@@ 1
蘭 1
napá@@ 1
鴨@@ 1
znalo@@ 1
lají 1
funkce 1
funkci 1
ůj 1
將 1
少@@ 1
hově@@ 1
り@@ 1
věcí 1
jesky@@ 1
systémů 1
torů 1
daný 1
své 1
jila 1
filmu 1
@@ 1
rizik 1
dány 1
dána 1
nazdar 1
忍@@ 1
祖 1
daleko 1
脿@@ 1
hlédl 1
首 1
záznamy 1
krásné 1
neče@@ 1
přihlá@@ 1
boji 1
aktivity 1
必@@ 1
dvou@@ 1
ⅻ 1
navr@@ 1
tajemství 1
díme 1
aktuální 1
vývoz@@ 1
charakteristi@@ 1
ujeme 1
vysoký 1
výchov@@ 1
trvání 1
poskytnut@@ 1
člá@@ 1
گ@@ 1
máte 1
▒ 1
zobra@@ 1
čem 1
odě@@ 1
nech 1
projektů 1
bolov@@ 1
zahájit 1
龍@@ 1
sledov@@ 1
více@@ 1
stavil 1
hezké 1
rozvoji 1
ukončení 1
ي 1
běžně 1
národního 1
ktem 1
připrav@@ 1
bliž@@ 1
vyhrál 1
síti 1
základní 1
květ@@ 1
mně@@ 1
odhal@@ 1
vysoko@@ 1
abyste 1
蟲@@ 1
výstup@@ 1
 1
lně 1
手@@ 1
vík@@ 1
hospodářskou 1
pomalu 1
kategorii 1
 1
ztrá@@ 1
ovliv@@ 1
oficiální 1
smá@@ 1
jezd@@ 1
čkách 1
₫ 1
klien@@ 1
srov@@ 1
čten@@ 1
kompli@@ 1
věde@@ 1
pěst@@ 1
年@@ 1
dvacet 1
procent 1
výro@@ 1
cházel 1
尔 1
pobo@@ 1
ฮ@@ 1
₂@@ 1
zabí@@ 1
miluješ 1
zje@@ 1
institucion@@ 1
souvislosti 1
postupně 1
formuláře 1
potí@@ 1
řádu 1
zavaza@@ 1
povin@@ 1
ností 1
úh@@ 1
tlou@@ 1
雪@@ 1
 1
⌫@@ 1
tuje 1
uspoko@@ 1
koně 1
soudy 1
zachování 1
院 1
ckými 1
kovém 1
jednoho 1
vytvá@@ 1
čl. 1
správních 1
údrž@@ 1
svaz@@ 1
bolí 1
➝@@ 1
jater 1
kazy 1
loď 1
veterinární 1
zatra@@ 1
秘@@ 1
úvěru 1
@@ 1
zené 1
zení 1
reproduk@@ 1
popis 1
váno@@ 1
ǎ@@ 1
věk 1
馻 1
silné 1
chlapci 1
tních 1
ת@@ 1
slí@@ 1
ٌ@@ 1
obvykle 1
volné 1
ӳ 1
dneska 1
milý 1
tajem@@ 1
ώ 1
⃰ 1
𝜔 1
म 1
ztratit 1
výkon 1
podrob@@ 1
zích 1
ovány 1
témata 1
cestou 1
mluvíme 1
ostí 1
अ@@ 1
fajn 1
zíme 1
स@@ 1
ম 1
když 1
vnitrostátní 1
ckém 1
බ@@ 1
enci 1
rozhov@@ 1
základ 1
atele 1
prasat 1
líš 1
@@ 1
atelé 1
standardní 1
omlu@@ 1
narozeniny 1
čního 1
脈 1
nelze 1
číst 1
silni@@ 1
počítač@@ 1
hrob@@ 1
ujete 1
důkaz 1
dál@@ 1
uvádění 1
vítejte 1
چ@@ 1
operační 1
א@@ 1
tný 1
@@ 1
dolů 1
klinické 1
齋 1
východní 1
blázni@@ 1
ි@@ 1
jdete 1
vytvo@@ 1
viděli 1
řetěz@@ 1
স@@ 1
nechám 1
letech 1
 1
zdroje 1
ťá@@ 1
ství@@ 1
spoko@@ 1
řešení 1
odstran@@ 1
odvětví 1
zboží 1
komu 1
spala 1
ryb 1
mapy 1
zvy@@ 1
成@@ 1
nutné 1
ˤ@@ 1
následovat 1
kací 1
regulační 1
tedy 1
烈@@ 1
vyslov@@ 1
záruky 1
vné 1
⌋ 1
rozumím 1
několik 1
vašem 1
dveře 1
bezpeč@@ 1
vaše 1
■@@ 1
ými 1
nemyslíš 1
vaší 1
나 1
něte 1
čtyř@@ 1
chází@@ 1
bů@@ 1
@@ 1
cenných 1
の 1
špatná 1
zejména 1
zatracen@@ 1
šila 1
šilo 1
裏@@ 1
vybrané 1
zatí@@ 1
února 1
příběh 1
druh@@ 1
vyhlá@@ 1
úro@@ 1
@@ 1
obsahuje 1
lená 1
sedm 1
znak 1
trvalo 1
peš 1
う@@ 1
posouzení 1
pustila 1
starat 1
řidi@@ 1
腐 1
vztahů 1
ⅴ@@ 1
刊@@ 1
vyhod@@ 1
navíc 1
dlouhodob@@ 1
politických 1
materiál 1
ávají 1
aného 1
svou 1
složit@@ 1
⌉ 1
⌈@@ 1
evropy 1
osvob@@ 1
binu 1
spousta 1
න@@ 1
@@ 1
⇒ 1
stanoviska 1
poznámka 1
nádher@@ 1
miluji 1
dříve 1
zmize@@ 1
✓ 1
mému 1
zvra@@ 1
spolu 1
dluhop@@ 1
střel@@ 1
░ 1
hlaš@@ 1
výzku@@ 1
ב 1
nemoc@@ 1
legální 1
cíl 1
ジ@@ 1
術@@ 1
ptal 1
smě@@ 1
jedné 1
ğ 1
buď 1
osvědčení 1
tonu 1
แ 1
∝@@ 1
dodrž@@ 1
nebyly 1
vtip 1
španěl@@ 1
při 1
‾ 1
⅔ 1
hovo@@ 1
vlastnosti 1
síla 1
jících 1
zúčast@@ 1
formulář 1
tvaru 1
lát@@ 1
@@ 1
گ 1
jedno 1
síť 1
síš 1
určit@@ 1
mů 1
zisk 1
poslední 1
zaci 1
か 1
myš@@ 1
účasti 1
쁟@@ 1
ený 1
případ@@ 1
lím 1
áře 1
jsme 1
tomto 1
díš 1
souhlasím 1
šný 1
aní 1
člen@@ 1
posly@@ 1
správ@@ 1
uvedeném 1
ゅ@@ 1
jdeme 1
francouzské 1
vyšetř@@ 1
pisu 1
zobrazení 1
čas@@ 1
smlouvě 1
uči@@ 1
uplatnění 1
použití 1
účin@@ 1
loval 1
บ 1
schopnosti 1
術 1
patří 1
پ 1
ῦ 1
potřebuju 1
nými 1
jinou 1
čených 1
ávala 1
zví@@ 1
budoucnost 1
šena 1
součástí 1
klid@@ 1
잡@@ 1
televizi 1
江@@ 1
úst@@ 1
áno 1
貴@@ 1
hled@@ 1
bojov@@ 1
ání 1
vní@@ 1
stěž@@ 1
zakáz@@ 1
祿 1
předmětem 1
věz@@ 1
počítače 1
ٱ@@ 1
žil 1
吉@@ 1
dvoru 1
芸@@ 1
kůže 1
pozor 1
atelem 1
žití 1
█ 1
zvláštní 1
sám 1
vymá@@ 1
nimi 1
幼@@ 1
و 1
máš 1
学@@ 1
smysl 1
brz@@ 1
zji@@ 1
mál 1
kontrole 1
অ@@ 1
kontroly 1
pravomoci 1
ý. 1
ulož@@ 1
밥 1
ˆ 1
rádi 1
mání 1
ع@@ 1
výše 1
předklá@@ 1
teroris@@ 1
mimořád@@ 1
saze@@ 1
srovnání 1
prsty 1
hledat 1
ῆ@@ 1
bky 1
อ 1
і 1
么 1
度 1
zasran@@ 1
státním 1
hráv@@ 1
遁@@ 1
tového 1
ὶ 1
leté 1
ề@@ 1
koncep@@ 1
povolen@@ 1
kovou 1
stanu 1
vyba@@ 1
integrace 1
hří@@ 1
ー 1
čování 1
výzkum@@ 1
předchozích 1
dvanáct 1
aném 1
zvuk 1
písmeno 1
 1
nepře@@ 1
potřeboval 1
rku 1
textu 1
zpráva 1
útv@@ 1
komise 1
？ 1
pojďme 1
prav 1
❤@@ 1
六@@ 1
plán 1
zástupci 1
podpůr@@ 1
nápově@@ 1
⌘@@ 1
vedení 1
konz@@ 1
registraci 1
术@@ 1
člověka 1
směr@@ 1
∅@@ 1
zemědělské 1
výrobku 1
výrobky 1
搘@@ 1
výmě@@ 1
sfé@@ 1
ǎ 1
‎ 1
aktualizace 1
jednot@@ 1
látky 1
zabezpe@@ 1
kám 1
ově 1
vývoj 1
dvace@@ 1
sedmi 1
等 1
moč@@ 1
řídit 1
等@@ 1
pěkný 1
و@@ 1
忽@@ 1
tovala 1
telný 1
orgánu 1
rozpočtové 1
ryby 1
آ@@ 1
pánové 1
odkazy 1
ďme 1
počtu 1
porov@@ 1
otevřel 1
odkaz@@ 1
hlášení 1
●@@ 1
ʰ@@ 1
ั@@ 1
věst@@ 1
kvality 1
≐@@ 1
劉 1
醤@@ 1
nabídka 1
勛 1
prodej@@ 1
železniční 1
dáš 1
𝅝 1
lépe 1
 1
vozidla 1
京@@ 1
vražda 1
měsíců 1
prosin@@ 1
téměř 1
⌦@@ 1
zvyk@@ 1
nemáš 1
této 1
nutno 1
mužem 1
ɔ 1
ン 1
ɔ@@ 1
nejmenší 1
končí 1
takov@@ 1
@@ 1
zákla@@ 1
@@ 1
osobních 1
soudní 1
našich 1
konce 1
osvět@@ 1
čit 1
potkan@@ 1
potřeby 1
kven@@ 1
zachy@@ 1
nechci 1
doporučení 1
ovými 1
sklon@@ 1
konstrukce 1
požadavků 1
našem 1
ústřed@@ 1
ガ@@ 1
finančních 1
šího 1
uví@@ 1
ším 1
